conv_5_param_0 6.750960 6.444110 3.033888 6.587004 6.532550 13.356684 3.402745 7.256894 8.409146 12.426047 4.145236 4.777364 21.283155 3.285773 20.235516 9.140841 
conv_6_param_0 607.169006 385.524719 584.249451 313.885010 789.529846 267.463348 891.240356 314.843964 680.632751 727.603455 523.212952 663.553284 711.421387 332.272614 404.779755 776.478210 762.639465 579.395386 390.788727 901.248840 446.065735 609.293762 245.018600 369.478058 449.233185 321.497803 699.941162 462.111847 345.304962 314.355347 285.570618 265.323456 
conv_7_param_0 167.135101 151.395645 219.204697 225.732666 99.621368 377.188385 739.458557 118.157898 501.668243 99.866592 328.580750 454.317505 420.742889 130.242065 221.913330 230.596237 83.577118 175.923706 485.312653 411.069672 1079.551147 355.607361 306.414185 244.754501 197.230911 198.317871 192.880508 232.099792 428.459503 135.467850 353.846741 140.049622 
conv_8_param_0 204.991409 165.359589 232.499176 377.429962 156.998993 223.437836 193.237366 190.455399 
conv_9_param_0 3.474485 8.079543 6.202066 4.991626 4.522295 5.493673 3.213052 5.197484 4.405036 3.509912 5.755562 4.304872 4.707053 8.383265 5.141080 5.765914 
conv_10_param_0 325.646729 223.862213 271.653473 129.525818 228.402893 314.350677 182.659836 234.970795 202.064301 161.569183 253.465729 251.560715 220.262222 147.991287 209.024826 167.761002 153.364166 148.959335 282.490448 206.930420 221.310776 251.544586 249.968674 387.447815 122.380051 321.403687 199.899918 252.933701 282.186859 291.370941 197.115463 432.667328 171.460526 299.425079 160.755325 228.731552 110.128395 344.932373 236.635391 253.453094 407.674652 265.492310 194.266464 542.328735 285.174652 199.019104 312.225311 208.871002 198.322159 182.635010 105.194450 292.221954 491.302673 455.936035 123.775230 132.459152 268.724731 172.458145 236.209305 170.464783 122.786934 133.299240 226.172211 545.267456 
conv_11_param_0 1526.128418 1835.936279 680.007385 276.580811 1227.050293 693.572205 1391.235718 673.947876 1235.418457 534.671692 907.377258 2003.790405 304.248688 764.387024 1982.805908 1441.261841 1761.523315 214.901169 1463.133789 1246.746826 1503.102295 973.106934 809.948608 1615.535767 1085.317017 1417.092407 1623.108765 944.059326 2198.081787 814.736572 848.794128 895.372375 1429.118286 789.643616 1447.537231 973.414551 1298.921509 792.029907 1750.312012 818.007202 893.421143 784.062622 879.167358 884.407410 1423.177734 1837.848145 1635.412720 326.615387 2207.620117 1018.432556 897.232178 797.235107 827.635010 822.341675 796.587585 1031.656860 1380.193970 1986.389526 793.330811 1302.347412 1358.404541 2337.988770 581.700867 572.335999 
conv_12_param_0 411.923340 262.321747 195.039307 272.216125 400.254181 347.231018 283.324127 193.329590 344.690918 335.961456 234.118530 351.380951 287.645233 236.755310 172.951462 370.161865 256.237610 363.243988 172.612198 377.263916 359.956207 259.972687 344.280853 291.825867 364.346039 189.217239 267.027679 119.049164 155.771820 266.431580 197.208847 331.714172 295.841309 473.201202 269.802338 376.706421 387.010498 431.771667 151.110474 273.867065 467.393219 398.965363 423.875092 309.767273 406.549072 359.417450 491.681671 521.819641 542.017273 412.743683 345.887390 473.597839 333.861237 592.782593 480.791412 476.508728 308.986420 418.860535 430.224335 386.116730 236.615417 530.938354 506.424042 368.390076 
conv_13_param_0 107.676453 104.108627 139.015320 78.561295 112.149849 96.335655 111.732147 143.362061 82.986191 99.131371 62.015022 86.658455 73.217461 49.254257 160.507782 74.463409 
conv_14_param_0 118.828056 102.793068 99.282700 49.038445 106.029625 75.207962 97.864502 87.583595 76.006767 102.613976 105.568817 94.149437 87.969322 58.139656 102.663528 67.152580 76.610481 65.155602 98.656570 67.042419 66.773422 45.388119 87.144600 108.904739 120.679794 102.594559 73.428360 56.305138 146.887436 117.832863 58.292347 84.275688 
conv_15_param_0 338.933594 550.493225 396.530884 248.250092 141.415543 108.954124 290.304779 218.349030 180.906662 230.260880 261.552887 442.614655 252.459473 279.978149 203.850159 469.039246 249.000168 226.394257 304.943420 587.949829 185.006073 194.130966 312.396576 146.372025 488.202789 472.526733 338.451233 299.183380 273.064026 283.235260 207.718399 237.165939 259.302155 365.615234 233.696304 266.182098 269.495789 173.708466 273.075989 202.942612 626.528870 322.695465 214.937195 256.046722 244.887894 299.253265 323.210297 413.557068 273.024017 223.746765 223.173340 193.807373 219.660599 298.017365 306.864197 191.679581 280.864655 230.582230 382.240417 197.756897 222.871857 128.666626 258.231049 325.363190 168.954895 272.051422 267.085114 310.823608 361.654022 349.389374 273.594727 249.150421 232.780212 311.917725 176.381241 331.355316 247.198868 301.760895 266.569122 216.455933 308.724640 375.143829 268.647186 539.929504 255.974808 170.269135 434.483490 280.256226 299.073975 352.887421 216.622742 257.646637 499.457214 291.900330 735.144897 290.331207 411.535522 250.343307 336.806030 430.419434 244.849380 276.420288 312.029083 258.302185 282.570282 388.634491 142.550110 181.490189 278.436157 215.401001 152.361694 219.833466 395.333160 230.398254 328.853394 355.946350 387.929169 352.779694 282.385498 220.981430 437.312561 155.381180 225.006332 169.436203 241.546707 325.203552 233.985229 351.380768 
conv_16_param_0 620.380615 944.458923 696.117371 1105.431641 258.075439 710.056030 859.615784 919.515625 817.008728 185.133881 686.609192 768.011719 377.667969 1334.000244 583.305969 1427.528320 1172.270508 611.201782 1444.120972 1042.716919 876.368896 677.744385 607.608521 1113.013184 852.476624 367.184845 1232.916138 1015.725769 360.701385 818.379700 1046.973389 431.091980 420.474548 344.683167 532.381226 525.540833 237.525986 975.402771 415.284790 455.310760 578.868530 962.146729 975.968750 637.833069 699.952087 481.621979 240.179886 1114.726807 684.944336 556.187439 544.666931 649.677979 693.662659 384.806274 494.781891 559.241211 496.870453 1171.089111 965.469482 676.265930 447.087708 1123.273804 750.066101 1364.101318 685.666199 538.423584 986.725037 1470.282349 642.310669 1422.826660 1199.003418 879.031433 433.883911 1081.270386 678.938477 515.423340 582.035889 1042.133667 423.168701 308.126282 436.858337 656.430420 712.302002 935.093323 667.843140 695.545532 732.071289 928.246033 563.960388 413.036652 873.313904 1050.507935 864.591492 707.047668 370.759857 734.423157 294.973846 623.468811 733.906128 803.282715 588.050781 488.187073 659.738464 508.560669 616.590149 1110.922607 1221.267212 221.714981 670.792297 966.753845 569.039185 491.461884 663.114685 527.151428 493.190094 406.418610 879.533264 509.548126 742.134094 1178.876343 629.582886 647.987244 465.091248 1324.153198 915.093689 481.266022 513.966309 544.387634 
conv_17_param_0 297.854279 396.464874 409.038300 321.460144 445.041779 263.712219 239.725967 245.670227 311.360016 410.183502 307.330231 236.335648 265.935913 334.090912 415.738220 270.006012 304.619904 342.516815 264.023315 241.264084 228.438385 304.393250 330.373138 320.855988 427.982941 229.632874 415.782776 301.293152 175.770935 214.051605 271.887970 320.204712 241.975098 236.558929 347.300049 234.686508 229.167068 224.662842 228.313980 391.136444 199.966690 509.765808 293.785767 382.798218 306.576141 314.679260 319.627960 238.673752 284.064789 153.724686 274.529266 373.733826 292.512878 278.811066 377.246216 225.255890 264.767487 294.409546 234.613815 327.373962 571.259888 252.242126 343.843719 257.960938 173.128326 214.499786 367.946350 558.239807 292.083679 339.974884 278.997467 236.508072 437.961243 481.308868 389.231598 225.357925 281.329285 256.962463 221.459824 177.318085 342.149658 352.577179 500.868561 235.703247 521.572083 453.647186 319.934845 424.912231 398.296082 375.664276 457.366486 235.468735 408.308990 647.728760 298.916992 198.016937 308.336365 295.305267 414.812592 361.540649 270.201935 459.751068 347.895172 356.032074 256.359650 404.116302 334.669556 317.276825 237.079514 444.989716 453.479126 384.334320 326.596497 295.739410 203.598648 221.678574 238.037842 196.920319 375.497070 424.825653 476.840485 298.673706 481.017914 391.238037 213.655304 546.794556 246.485443 309.229736 
conv_18_param_0 467.815094 465.255554 435.635315 537.238892 347.745239 338.783600 526.808044 551.757751 568.246704 366.898804 366.489532 424.909943 593.173950 354.751556 435.883514 285.556824 518.807251 368.165283 338.834473 444.552979 196.512497 427.881348 407.832703 535.145569 553.169739 275.868225 441.653198 344.402802 295.243317 345.508301 446.549011 258.130554 
conv_19_param_0 87.435478 87.852013 67.572693 72.837379 61.066158 71.841675 61.042507 120.496307 48.550129 83.548706 53.956161 104.336746 92.497589 71.548141 94.434273 48.643646 40.367199 121.651520 47.781647 50.616329 54.588818 105.167198 83.119255 118.084587 98.116829 60.901863 93.721069 62.055824 54.143009 80.070152 62.171928 70.704628 
conv_20_param_0 81.198036 110.309715 75.865234 56.105469 84.017609 112.183754 100.416466 116.415565 164.140472 148.867889 135.412704 52.860535 81.958138 115.577187 233.302032 139.911606 77.690613 66.678474 77.539452 189.597107 100.375580 142.109222 140.740417 90.767975 113.189659 101.384109 145.153717 88.379036 63.522961 68.246300 139.509125 101.797485 
conv_21_param_0 116.021721 104.025192 114.376564 104.187035 144.255875 136.216751 170.543762 161.894760 96.749092 114.728928 126.010887 86.563576 138.164886 144.783966 133.738098 85.555534 92.083130 166.259689 172.543304 81.479118 123.768227 368.240967 143.790146 114.737846 63.695770 95.842979 119.719231 168.824585 147.101181 157.264374 81.638199 108.760147 
conv_22_param_0 74.626534 97.699150 95.357849 41.570686 119.572586 110.643753 102.092506 95.189095 85.783546 90.925735 101.532593 99.025291 88.698334 127.766403 73.143021 110.575302 76.316383 94.844543 115.281586 65.911438 110.597137 98.776283 91.967697 122.381493 112.662033 106.523186 88.131485 67.631279 92.085846 87.335938 111.634850 114.821274 
conv_23_param_0 241.721176 253.904755 192.058456 274.252747 272.092773 153.412384 182.706268 185.089722 200.826599 345.868530 171.651337 181.130463 213.587204 264.402863 266.986755 240.129684 174.091003 109.884468 201.797379 196.311462 280.483887 325.325806 245.351578 355.508514 263.368134 302.586212 203.009064 171.376755 128.617065 256.738068 155.411682 195.381180 
conv_24_param_0 335.677216 252.736053 426.209381 264.715179 430.545410 588.515442 344.860229 490.350128 297.222778 432.932404 241.843521 327.381500 375.735138 552.743164 289.411591 531.546326 575.518005 198.826248 324.070587 384.249695 475.699158 353.796814 476.996948 320.578278 509.514374 453.395813 488.105103 304.340088 360.101929 327.313354 281.851746 337.730560 397.460846 564.577148 477.573456 538.702637 404.864532 334.342255 363.617737 477.763428 407.499969 275.152405 407.257721 244.252502 308.864746 291.286926 403.632568 540.666565 294.815338 552.955383 263.237183 284.328033 470.704834 356.713989 317.686188 384.263336 437.358337 365.063965 257.529968 223.618881 436.395233 394.229950 426.625763 305.578308 
conv_25_param_0 421.680573 531.833923 433.340240 166.687943 195.467377 330.901825 349.469208 324.785858 375.933350 406.864288 355.814270 492.595398 375.142639 655.850098 637.055969 246.797089 590.311584 341.270294 184.177963 388.433197 298.599091 338.541901 388.490662 317.344757 412.792694 282.511200 451.473511 363.863159 348.408539 615.388306 265.670593 620.518921 298.285583 477.455048 580.028137 154.480865 446.466034 232.389786 368.602264 603.955933 533.288940 219.717972 364.170868 581.679016 133.309692 449.218536 387.449219 363.452209 286.098328 415.208923 338.462097 396.912598 187.104401 423.507629 364.901062 583.559021 242.363083 346.973969 540.204407 503.083954 570.672424 585.829773 196.296387 348.237457 433.124603 218.323730 263.381409 547.857666 309.726166 368.416840 397.068146 661.175964 400.661621 431.273254 367.229706 501.891174 332.659363 647.814148 433.520447 570.179932 405.656067 352.521149 459.907806 328.474304 397.741180 340.767059 612.883667 607.632812 318.745941 309.535919 599.779663 401.612061 369.319122 343.642914 536.020569 671.888489 292.305542 517.577026 459.807770 600.530884 256.976776 289.657532 222.703918 388.846466 313.523041 470.322632 428.461151 270.418671 392.237488 406.642883 429.568695 357.977173 257.772339 526.346680 442.718170 393.713257 505.668701 395.521179 397.084412 378.205719 442.592529 291.120056 665.426025 400.695129 555.233032 623.370178 459.890442 254.821960 
conv_26_param_0 912.722778 709.089966 397.910980 1302.475952 1372.685547 1895.055786 696.027954 412.647919 789.700806 851.354065 1449.449585 1187.715454 1165.752075 871.339844 908.804749 971.762390 1121.103882 836.343872 1183.611328 751.111633 544.384949 1536.186890 698.710510 311.733307 1071.775146 1034.421997 790.660278 1005.326172 811.793701 805.942749 914.645874 807.835999 493.770447 912.106567 1585.626221 667.960388 658.674316 625.171143 833.606445 495.211517 644.375671 657.405029 774.242493 579.626709 822.038757 995.866150 748.873413 1524.497070 1220.700317 505.771759 711.707031 671.233643 1251.372803 1138.542847 1390.258301 626.250427 893.236511 605.474426 868.584839 1759.815796 816.188293 715.591003 1190.057007 1150.834229 1413.817017 1623.676758 909.958252 429.659241 996.317993 949.508667 1148.358154 858.611633 610.255066 904.334656 824.704163 710.074890 1292.136841 1398.442383 566.717468 403.962036 377.417664 1885.548584 1236.588257 515.880676 1205.193115 1007.931580 1031.846069 949.179810 1205.888306 666.995483 786.390747 737.484009 975.632141 1000.081299 1156.921265 453.957001 1335.728027 1329.406250 929.913391 1416.928711 466.506561 994.913452 1194.157227 1356.593140 1023.118042 1341.551636 1162.837646 1630.532959 1412.613159 1386.830811 1666.896729 896.498718 856.919861 1834.503174 1476.551514 1010.484802 1689.697388 1181.155762 1015.248535 786.211426 450.224762 651.696960 867.668213 773.345276 2048.857666 932.809082 787.622742 980.391602 1290.427368 680.755920 1279.445801 1193.806274 1242.756470 830.026184 739.136902 879.467896 577.515320 1052.183594 1876.760742 647.605469 1051.928955 1088.328369 652.927917 1329.516968 1318.902466 826.222839 1719.007568 1587.034790 1250.819214 1416.855835 1113.778564 749.928223 895.481689 831.034424 658.611023 1960.434814 673.439941 760.682800 1044.356323 1039.370972 656.103271 725.276550 897.173828 936.473999 870.669739 831.693665 1097.636719 1010.769409 853.657288 990.117859 755.197998 1577.847900 623.509583 1096.260132 1064.048950 654.610779 943.369751 800.687195 575.384583 1249.543823 1006.058411 816.186951 1045.619385 1450.026123 884.073975 1111.271973 1286.086792 1507.556519 1047.316528 1060.217285 679.112488 1299.870728 551.645874 911.416260 507.590546 1115.813599 744.156372 741.018921 1043.081787 768.450928 1177.455322 932.937317 1974.054321 582.511108 1418.682373 625.037537 1047.164062 1375.105957 1022.095093 810.810608 987.486938 986.790405 861.637207 1248.309692 1088.022095 1062.247559 719.529785 888.880005 1011.049744 644.214172 1300.253174 860.009827 902.575073 971.098083 776.445923 1194.354858 1798.228027 1292.979736 792.698486 842.454224 1042.266357 737.828613 1074.590210 994.506897 494.251801 1080.425781 942.097961 1129.653687 1017.328247 726.990479 436.872589 1128.845093 716.440186 349.505859 1603.521362 597.257874 738.781250 487.688934 873.928101 930.513428 593.895813 716.322754 1090.493042 850.269470 1489.278564 969.712402 
conv_27_param_0 468.731079 257.069916 320.155640 324.905853 308.051941 347.113770 385.230438 433.283325 361.965973 293.024689 294.095612 369.990143 348.149414 329.928864 328.132477 508.548187 301.012512 357.722107 275.065491 419.676086 246.886322 337.523041 404.081848 255.963470 297.930328 490.122803 351.945190 364.998169 276.269318 325.161407 408.496735 155.852783 342.071045 320.750397 374.343903 288.687683 340.338104 275.952332 343.828552 296.123322 421.796906 502.922760 300.260803 246.954254 292.415649 296.772858 488.118652 373.416046 291.223663 334.287231 364.165436 492.132904 386.554016 507.167908 341.150726 326.752869 391.604797 330.461945 365.529358 314.897278 682.086243 364.577240 383.437805 371.213654 322.461243 332.312531 485.053009 329.877197 388.574738 463.584900 388.531830 342.564117 240.701706 282.569305 493.695648 305.014038 388.993500 436.014130 362.983490 424.254913 413.249756 310.013275 268.019440 94.905533 298.749268 426.728210 221.581009 251.127045 426.847839 366.862396 357.129456 429.972809 218.838928 410.210785 353.581970 501.726074 414.979309 462.701141 459.188599 433.116577 496.836792 306.862213 377.748199 416.728027 296.669037 435.356750 435.594116 257.812622 359.034393 428.570465 486.833160 345.512817 303.801544 369.527161 301.037903 317.908783 365.480530 414.147888 277.297485 298.023163 432.125366 415.821747 423.535522 364.185974 231.067871 390.742523 592.528381 489.218994 202.024780 342.029388 386.007233 331.090393 424.981415 579.158325 294.972168 439.605011 347.852753 394.087616 289.748138 690.002197 295.830383 352.585938 301.136139 490.776672 851.434021 229.050766 486.950714 441.336060 346.537598 343.892273 248.369690 790.065857 393.907745 587.300598 380.064972 422.560181 400.686890 436.201904 626.933777 387.135498 214.631363 386.773254 730.875183 261.583435 281.854248 388.199982 548.649170 271.761932 462.696594 461.396851 469.609558 352.926819 548.212891 526.831177 391.202484 621.897461 327.537842 463.900574 400.612579 397.354645 320.950684 356.830322 478.295380 360.600830 442.897461 416.444580 301.919434 377.782806 480.928345 446.453217 603.486450 453.296600 600.717773 407.930969 335.853577 436.242249 629.799438 146.912231 261.600372 677.239685 358.173828 276.724243 289.530640 348.936371 605.218628 277.173279 358.372314 123.079750 250.193069 474.118683 348.952972 394.504364 390.785492 556.507690 136.829086 354.321625 367.686035 401.404053 337.007050 263.323883 595.441406 380.577728 683.086914 451.414215 388.747894 561.614746 446.074951 522.798767 288.255615 290.237061 264.398529 263.956604 228.552078 402.495789 409.451141 425.100006 511.189178 265.252472 255.354050 340.495270 450.550171 434.617981 433.177094 410.365570 442.834656 437.499146 524.699097 383.080963 399.084320 324.513672 490.901154 411.648499 490.422150 670.697388 385.552551 389.530762 
conv_28_param_0 413.245270 524.770325 414.886322 811.641541 487.801208 238.165894 376.516174 580.438171 878.695068 310.724823 580.697083 440.923462 215.254028 505.446686 566.350952 624.939270 746.455139 387.338165 593.446106 126.773300 444.667786 345.527710 429.945831 483.791412 379.987091 250.507309 521.166199 629.942139 269.466125 199.138138 618.029663 429.302063 269.312225 426.866699 235.696884 832.657593 416.725281 368.546204 162.640518 407.298737 380.109711 538.673523 1025.273315 501.428467 281.879059 417.329987 530.330078 645.637329 506.423492 360.708649 307.742462 359.537079 294.409576 595.561523 804.163696 559.299133 662.789307 581.943787 527.640930 611.194275 521.298767 405.383148 327.906281 272.803741 
conv_29_param_0 53.019650 161.982620 60.289478 64.139374 71.635124 64.891060 118.994385 119.316757 53.424686 55.455757 112.511833 111.242958 74.168205 58.239922 87.822701 108.717522 76.668945 110.608292 124.279213 120.697350 83.095901 57.820877 85.564873 70.290070 72.679634 62.684364 34.983467 53.288200 72.171173 105.779396 89.287628 42.656727 55.754776 37.110512 61.529205 71.597130 90.409943 68.761826 111.242104 63.385544 83.451492 46.304466 81.239304 73.151070 68.313339 50.920101 44.619041 86.918060 143.554611 100.100998 97.083595 68.590881 77.754425 61.101887 48.502079 134.917587 41.397308 112.076088 98.826324 67.754982 67.472740 83.505234 106.103127 102.364700 
conv_30_param_0 157.533127 259.421936 160.043915 206.801407 265.012726 216.862747 150.658554 191.921036 255.323120 124.452484 253.086395 107.171349 193.788803 301.889191 67.031578 182.270981 263.580170 184.083649 181.560577 76.079597 47.278877 319.322662 143.601456 334.814453 101.809494 169.525787 65.871132 122.915062 74.526711 184.834076 136.751236 110.851891 202.926712 137.262070 223.594345 209.549194 228.681168 168.131042 276.432343 153.843613 151.044174 236.217300 167.207748 161.113647 164.722076 122.482010 211.293060 224.644669 153.957336 144.543457 187.897476 149.183258 205.558350 122.393188 104.171097 178.345825 121.461853 203.277618 136.231003 143.412140 128.103867 286.389679 112.711792 130.803253 
conv_31_param_0 208.295959 125.868347 175.252625 164.687485 179.598206 277.524109 290.070618 134.108215 320.592560 119.095520 182.092163 140.721207 249.880447 136.021591 200.347351 154.345352 191.540939 231.049469 240.995132 180.593689 245.460739 214.968201 209.689774 92.727913 187.359482 229.861069 171.660278 179.953857 160.871887 149.092087 269.991241 57.397884 153.606400 137.525681 200.595795 165.191635 169.915573 150.573624 153.702362 154.729630 175.179443 137.054733 342.069611 145.737549 181.636414 218.221298 99.658943 148.367737 225.044617 260.618866 180.727051 165.891373 301.722534 131.810410 176.522598 301.532898 355.868103 96.105820 188.212067 298.963989 180.897247 245.384308 297.447937 232.891830 
conv_32_param_0 167.483582 127.895119 167.792023 213.253967 172.864899 237.432495 161.254181 167.576279 299.504425 233.704239 285.255585 204.202408 148.381424 248.067047 213.188751 117.582985 215.216385 230.646454 176.912766 249.931091 72.498970 234.665039 226.694855 249.992081 211.946533 156.943390 104.018707 178.014694 249.939682 105.907242 116.964417 193.441589 136.447083 157.466660 202.756897 166.233078 307.817566 158.177338 216.066437 156.740112 127.091660 189.236374 52.762455 61.663918 108.175667 206.207260 114.614105 255.697556 226.542740 111.369591 119.072807 139.836472 239.928726 142.339172 122.767845 120.304710 190.022995 62.446880 205.319214 139.724701 127.722939 75.680855 152.745529 147.750748 
conv_33_param_0 200.451004 281.894562 220.442535 225.682190 217.474655 296.850220 241.130676 160.167191 189.247253 190.113907 257.199951 292.761353 194.586792 263.510651 280.770599 152.011475 239.909775 188.826431 247.190384 221.577774 261.365143 204.287033 233.111847 188.254684 211.262161 199.239120 268.624542 250.646637 282.228607 152.000641 339.588440 208.946335 203.685898 193.838669 170.736206 313.130890 163.186462 180.559616 209.986771 256.759460 209.646072 228.813370 133.503891 237.640884 243.663162 261.013672 240.297394 222.702408 259.709808 241.667633 254.414795 224.770035 233.242676 160.020935 252.105972 265.634491 202.757355 203.732559 290.878754 195.001846 216.191406 240.600220 260.021698 248.374176 
conv_34_param_0 718.933960 938.841492 849.997437 542.460571 754.859863 977.561584 752.496277 1004.110596 722.785767 687.631653 646.758667 632.381592 490.186890 633.697876 675.727234 771.339172 895.627136 745.478882 1062.229492 746.440125 567.068481 1171.891357 772.211365 823.615417 554.709473 276.708282 615.651245 712.972229 692.913818 785.740295 823.130676 812.590088 633.782227 740.548462 725.395142 670.637512 1121.621338 697.672852 1040.522217 421.962891 680.267944 608.782593 837.857788 246.496170 671.648682 819.404053 205.051514 698.117310 701.119507 666.308167 766.093323 814.069641 894.502625 1700.166138 678.926025 872.349060 519.098938 922.270447 750.564636 938.813049 299.801544 696.072327 684.849243 772.594421 615.946472 818.796997 819.408020 779.496277 756.061218 655.438477 389.266937 617.383423 1081.467529 745.144653 350.558563 842.918945 553.747437 281.524597 1058.251465 848.235046 600.718323 916.390625 833.686340 651.262695 286.099182 574.593628 605.415466 1010.869629 922.269775 866.080383 1045.851929 848.653809 811.887573 581.222595 672.140320 572.442139 525.414978 677.778198 746.517456 522.561584 847.904846 958.881836 714.589600 943.873596 576.748047 810.226379 538.031433 495.656799 462.617157 722.246521 732.378967 658.000916 787.589355 712.896362 664.658081 790.351135 789.603699 601.007690 950.705261 976.625916 466.293274 634.230164 683.427673 703.858826 891.506287 735.112549 501.893250 707.183533 
conv_35_param_0 485.611938 1066.946655 571.251038 576.910400 688.699097 541.213562 438.881775 329.495850 499.555115 701.449951 723.972717 511.809784 691.260803 384.819580 443.039520 596.547302 607.504517 475.943268 353.837891 497.531525 561.557983 505.730164 604.828735 528.489990 686.161865 630.835876 600.441895 554.977661 1057.412964 549.886597 517.497437 646.700989 376.627197 513.965088 516.936890 492.470673 497.971436 562.016479 467.012604 797.532104 679.930908 736.556091 478.075867 472.120972 613.251160 179.782761 443.622406 922.256104 421.820801 601.896912 651.197510 624.718140 581.742249 409.707245 420.805817 473.107727 357.584534 547.760193 408.449493 861.040833 529.837708 708.763611 472.167084 1252.451050 527.560059 371.498322 577.935303 583.839478 765.129639 743.608948 548.992126 671.811279 510.337524 1015.754333 600.061707 493.633514 599.884155 1107.243286 357.490417 562.372620 484.966187 426.487793 556.633362 730.683167 730.984497 421.087738 614.409363 431.271118 967.319275 580.206360 510.483307 362.097412 774.606506 484.828522 590.361023 372.860535 893.478271 815.654541 961.149780 1090.135742 524.193115 626.985535 547.249146 892.202454 556.545715 560.509949 461.983093 641.338745 767.883179 542.337463 319.502197 608.235840 700.415100 599.076294 678.314697 675.428589 625.321838 1041.539307 638.611206 737.228699 923.514038 551.418579 382.507324 544.191956 618.723328 470.597656 450.554443 843.808899 449.676178 338.432861 687.489380 684.505981 606.797546 469.004700 550.871033 436.361115 409.615204 1073.710693 1187.897949 525.143433 559.205627 828.019775 178.834045 514.850220 698.678711 660.573425 650.093567 639.667969 662.431946 468.473236 518.725586 778.848999 761.301086 578.468506 764.432495 703.816589 557.481262 558.969971 579.328186 698.865662 591.706238 1087.832642 514.070862 596.256287 658.377258 478.680664 920.160706 596.650269 311.645172 840.016968 444.124329 403.158936 491.516418 522.423889 627.180054 566.569336 1296.244629 517.489502 460.989227 985.533630 539.387146 205.123230 1249.317261 525.565002 595.897766 667.641113 675.231262 500.191528 1099.697632 678.643066 560.905457 836.644775 977.095825 721.153259 341.660461 397.628143 517.058716 835.397583 688.020081 426.900787 1019.300415 581.875427 441.536377 679.783997 547.192017 804.829346 300.523010 991.217712 594.597534 839.284302 545.388306 852.645142 1008.205811 405.167084 491.575500 613.287415 683.615967 575.100098 538.561646 473.148499 420.023193 442.471680 1140.771851 1126.263428 610.149292 564.417603 550.410339 597.440491 696.369324 562.373840 673.334106 837.618042 539.989014 665.193115 641.801331 473.089508 474.638794 532.246338 741.085815 601.574158 595.496948 424.214294 464.402740 524.525391 538.029236 567.117004 751.916199 425.422272 1157.088135 1288.192383 545.370850 563.982727 913.315918 708.748596 683.269287 1005.383484 
conv_36_param_0 281.134277 282.852722 418.116241 235.107162 174.265610 321.304199 371.843597 359.207367 285.813721 363.815582 427.680908 339.589783 293.668335 305.131195 338.411896 380.954102 327.620392 286.993774 97.146645 343.166565 309.903809 348.769135 303.726044 437.712921 443.060242 283.105377 162.903412 393.250153 362.828766 219.285797 259.644867 374.147827 549.269165 281.807709 372.068115 237.893387 306.568085 395.150360 526.873779 406.740601 326.629425 446.541016 410.760406 311.354462 383.270294 417.411133 326.759186 354.459625 308.898376 410.594666 324.132202 377.283569 381.633484 456.412872 247.621262 356.834137 336.602112 103.062477 382.530243 494.303925 393.265625 359.183655 366.262817 302.784180 417.310822 391.895538 246.617813 305.766418 355.284851 368.280609 355.197205 372.755371 381.947723 354.869568 275.009796 359.607086 540.469849 390.631622 352.937225 273.259064 287.065277 283.441620 375.227692 363.627258 388.044556 266.107117 311.655060 404.252655 340.986542 233.553345 375.297852 413.714508 334.431549 365.718964 359.088135 364.393646 270.153534 466.536285 93.136574 380.342316 382.949768 277.705597 269.983490 426.617645 412.228973 374.256897 319.590118 368.639496 274.420532 307.868439 318.139526 107.647125 428.110992 368.815643 344.631805 269.386230 363.033966 318.951782 280.376160 379.274689 453.872925 441.884521 382.785828 186.829056 361.481934 347.728577 329.810486 300.640259 
conv_37_param_0 685.490173 1475.794556 484.141327 940.758545 969.590759 739.593567 466.872131 746.015808 1377.069092 1489.055176 1428.600830 887.628906 1677.245972 747.744141 954.635986 1750.119751 1431.986816 1517.121094 834.631714 1215.142090 1852.944946 1222.585938 913.437866 964.745911 1493.844849 822.117432 1417.052979 1936.263062 1817.951660 1382.072632 407.736053 772.382629 1311.075562 583.437195 960.892212 1012.940613 1236.158081 940.269531 1463.097778 1239.906616 1184.853149 953.758789 1047.926636 915.107727 1345.965576 930.876587 892.769043 2267.833496 612.357605 615.925781 1651.321533 893.022522 1086.591431 977.401367 800.717712 943.110229 391.939087 1975.328369 696.352356 2276.918945 1438.474854 670.849060 1065.435181 1605.621704 1980.721436 924.708618 1027.060669 1019.218018 1701.547607 1194.580566 1792.635376 1291.926880 662.739197 869.182007 1855.416016 888.425049 828.651978 842.259460 1423.153320 1552.602173 1071.051025 331.679260 1038.767090 1848.952881 5478.212402 1082.218750 914.059448 1233.946167 1939.906250 1053.925293 561.753967 955.361694 1458.589722 1867.042480 1081.561279 192.279160 1645.222900 985.394836 2215.050293 532.197266 1208.290649 1862.825439 1876.272583 648.595459 1927.461792 716.105469 1060.536865 1066.833862 903.674805 787.762024 838.817261 816.818970 996.829041 622.146240 796.748291 834.234436 1208.879517 931.935364 1673.631104 1277.796387 1575.665649 1165.201538 920.362244 1166.440308 1040.001465 1027.269531 1208.923096 1424.334839 643.296265 1022.169739 773.050842 832.353638 782.323120 1276.812012 1040.534424 832.075317 1275.303345 1955.499146 1379.972900 653.082092 1425.478638 1654.907837 1013.407593 756.757385 1423.330566 644.179138 1766.336792 865.272034 650.673401 675.703613 2002.024536 1328.809570 474.932892 1042.730347 1165.356079 2246.317139 659.713135 1292.263062 591.401123 438.088074 1047.644775 1253.033081 1344.509766 636.034546 1394.708740 1454.385376 1724.673828 869.005981 1134.729126 1742.888428 1208.629395 934.045471 870.727356 1129.500122 1419.968262 454.327728 1092.794189 1168.806274 1281.599976 1089.133789 674.327026 886.089539 1090.280273 913.835510 1526.408813 1854.312378 637.441284 1205.817261 1356.671753 1148.938843 1035.862549 1451.073975 1090.804199 236.354202 814.095154 806.621704 1326.372192 1157.258667 1847.262329 586.311523 855.455811 542.729126 1094.986694 2293.674316 482.667938 1822.683594 1599.724609 1775.213257 859.952942 717.530273 755.966614 1922.354858 1329.326538 890.880127 1100.943726 2361.656738 1251.809814 1434.343262 1056.770020 511.343201 833.841553 1085.032959 843.696716 971.857178 2013.709839 1063.379395 1422.771484 1092.081909 1716.703979 1231.059814 1233.276733 1274.293213 786.787170 876.752808 687.627869 870.991821 762.861633 1323.754028 1328.836426 1511.184692 1151.869507 1392.959595 1098.050659 1564.332764 945.430237 1225.235474 2571.965820 579.404663 777.102051 480.993774 1221.887817 1524.721680 1708.385498 438.347046 680.213684 988.367188 
conv_38_param_0 286.827209 176.206375 331.943665 349.355713 321.018829 275.939972 345.701294 286.750519 317.456268 198.224319 251.747467 339.203522 150.351761 331.730347 301.322296 365.105621 244.983414 415.482697 324.823822 265.916077 243.144669 280.559662 300.093140 387.428833 297.959137 284.241516 326.121277 448.203156 219.867874 286.075592 303.728668 341.569000 243.087036 223.098358 326.574463 320.086731 310.969116 313.404144 362.934235 291.827057 332.783264 379.330811 276.536804 351.704926 281.805298 373.201294 339.042542 394.590942 255.701096 206.638702 218.204025 264.784454 208.474228 217.075882 316.218445 324.100647 225.985397 255.658722 283.332275 289.866974 320.584686 303.159515 271.972412 355.863678 244.507202 355.022949 310.933624 301.614410 291.910675 313.258942 255.963043 374.390167 321.975037 325.147766 285.767883 266.939026 386.154266 296.112335 117.009674 366.730469 409.263458 318.346405 264.549805 207.042313 274.911652 362.932831 367.801819 243.455917 343.589081 389.386230 310.158661 359.708557 313.535400 192.144714 305.215393 308.148010 310.654694 168.562851 424.405121 288.074005 320.113068 238.193298 312.821594 327.127808 383.502136 286.201324 258.254883 348.802002 220.518860 328.643677 369.019440 303.918030 381.255951 311.370850 260.721375 225.235596 244.433594 256.261505 286.675812 409.487762 218.109879 263.387756 364.692078 195.541489 373.537048 339.346497 343.116669 227.669937 334.408936 680.578979 497.438904 494.166748 467.159821 407.286560 335.322357 540.605347 383.454681 584.208252 501.430298 304.995544 261.190613 452.355743 497.236053 729.435425 425.902344 563.354492 674.232178 126.060822 276.093353 454.030029 306.281647 457.388458 292.812103 556.967346 254.029907 320.512543 317.990906 321.241241 336.630859 740.704224 346.200470 412.244965 541.183472 503.120361 423.550568 265.215973 603.262634 402.563538 531.087219 610.604492 263.075409 374.892303 224.322144 594.256714 613.472412 363.411652 407.164917 504.115265 486.499146 459.892822 341.111359 666.890686 644.884399 321.749451 519.863892 544.359985 547.093994 207.010818 438.334625 464.079620 548.384033 332.412140 716.293396 555.560791 388.810181 426.602692 508.431000 336.543274 338.844421 337.805725 499.110718 255.050934 308.873932 436.161133 711.271423 452.694916 371.804016 321.389679 368.567810 124.863647 333.771484 328.275299 539.632629 741.458130 524.740356 317.568176 546.045410 328.261963 397.073181 340.428192 66.909546 331.337738 323.469666 672.817810 374.847717 393.968018 680.691284 309.581055 664.919739 342.691162 86.195305 335.488647 589.093262 667.145142 317.910248 405.929230 359.050110 409.376984 562.855286 287.767456 355.066833 751.721375 411.160278 271.374176 264.840332 302.481506 382.526703 530.569031 447.450104 525.526794 373.580414 322.736206 461.517883 202.239761 379.238586 591.041321 
conv_39_param_0 370.542908 635.866760 436.411072 249.861435 440.224152 449.265106 385.399811 376.680695 425.024078 4421.366211 430.224884 360.380432 258.117554 420.026611 514.130066 449.664795 309.148956 521.717651 371.035919 361.888977 455.832245 310.840088 307.912750 504.197815 510.119629 454.910278 328.100128 365.421906 400.039612 540.084167 501.372772 349.673248 378.452423 309.815887 525.033875 244.144440 555.394409 458.050903 193.061127 359.374420 348.967316 155.456711 479.369629 283.032867 373.137665 534.175720 379.823456 359.355621 321.937378 557.264465 315.849121 481.346436 536.622314 287.358704 308.134399 358.988342 295.430359 443.136780 305.343567 468.089203 447.521912 250.042450 322.390045 288.498871 1019.229736 833.423340 405.728180 422.170135 358.832825 297.913300 437.143311 202.211136 258.120911 217.869186 357.624878 350.203033 321.962433 262.475250 235.920456 300.932281 313.541565 395.035309 304.231781 418.095215 295.838837 304.157867 335.862610 542.559387 204.300781 270.371033 283.292297 398.661896 406.437836 281.878662 620.146423 324.688538 295.790771 368.868195 408.380402 255.993774 305.815674 374.951904 1227.430786 220.028305 125.556801 278.206421 330.524994 640.372375 419.328094 554.457214 303.426605 322.051331 275.292053 358.985931 335.460541 237.891113 338.029968 547.682495 238.167313 228.068771 396.345764 286.388947 252.988480 245.644363 166.983139 342.825317 364.534027 324.940674 444.645111 765.292053 411.100800 610.970032 390.006622 658.807129 282.362122 513.027161 394.630615 423.373444 330.121002 391.814056 464.212463 604.848755 455.058472 446.319427 307.829193 1289.263794 437.713104 465.819672 584.579773 725.218201 384.061157 573.720642 424.782501 347.606781 337.062439 549.649353 512.871033 562.688171 428.562714 487.359650 399.887085 196.672516 349.144531 316.562439 468.442017 445.038544 287.531158 403.241241 407.076752 360.343018 307.249023 310.783295 387.239197 274.754425 376.629700 525.616150 217.189484 185.764435 458.042725 381.836365 305.168091 596.843445 308.748474 367.748413 288.747742 376.809479 270.904724 263.410553 432.739563 290.454590 369.547974 411.522797 621.900757 897.265991 530.571838 201.974457 349.557709 265.272675 208.040558 334.388336 1257.482178 191.293930 297.739868 283.701935 232.379059 299.395020 438.232483 259.465240 308.223297 248.141006 236.423462 1456.548584 319.994293 165.867493 311.141235 204.983932 380.558075 495.595581 257.802155 310.081421 966.932617 262.135010 210.968140 378.062744 725.919556 900.138123 294.266083 237.257843 368.146454 254.363174 280.259369 259.766357 1087.349976 307.104187 267.482880 302.783661 1402.727783 266.203278 320.825073 123.973625 382.539154 384.294708 312.702454 283.102875 358.930969 257.346802 638.366272 298.462402 255.384460 255.747040 297.190186 249.901672 936.627808 253.104965 251.512756 418.173340 
convdw_243_param_0 56.207355 60.706654 106.737450 116.821899 108.801979 118.612244 111.039497 169.339020 282.516235 230.698868 118.353157 186.439987 127.757675 203.584656 143.814835 184.592819 252.072098 98.965111 171.460785 95.274445 185.487335 127.627083 138.940048 103.119888 290.046783 181.086319 156.920334 156.533859 91.154671 271.887939 81.841949 155.984360 161.064423 92.115959 138.610062 353.934875 173.602631 127.438431 46.234055 208.170273 474.456360 114.282501 172.809586 117.387894 159.833405 137.529953 261.129486 151.414169 317.807831 143.417206 217.883408 435.204407 104.883667 94.971909 218.662811 185.508392 157.228226 144.258606 181.209396 213.153290 250.309509 153.649475 1361.282227 135.373718 151.640244 61.708603 131.793518 341.126221 415.915375 389.565338 319.922150 1759.789673 45.695728 367.588715 385.206604 857.881470 338.541809 545.531982 283.201263 552.530701 427.107483 413.982208 496.386200 34.019882 385.401459 225.856079 346.771118 311.875854 452.553955 193.851395 246.498474 248.390305 120.524315 506.810333 599.784485 177.729385 63.883377 69.518005 295.110626 456.285431 175.796722 334.892242 411.441223 558.888489 48.334702 312.098663 315.457642 617.229065 78.161240 285.737000 384.728638 358.219391 161.611771 279.302521 474.488647 337.825470 150.780075 457.352966 128.090179 432.840607 400.218262 533.158997 652.422974 310.404388 53.342670 411.103302 309.954559 214.582550 
conv_40_param_0 734.206299 1038.549316 863.991272 853.832520 962.777222 957.124146 896.660950 980.765869 785.637207 1368.336182 965.925110 978.019165 1146.710693 1152.156006 862.303650 624.639099 883.878967 893.391174 985.952820 297.662170 853.885254 763.575256 766.652405 1022.912109 837.166504 680.538147 1359.961426 913.335083 787.348083 1053.315674 928.643433 1360.349731 1042.903687 794.702942 767.238953 911.143372 955.638733 1124.145020 1017.203979 1024.952515 956.030945 852.444214 777.698914 778.757141 900.430847 698.787720 926.344849 1073.945557 709.903748 1037.970215 1139.028198 795.962891 848.499146 969.694763 923.209656 962.293823 848.090942 931.677246 850.836914 1142.682007 1036.129028 950.430786 1136.796753 916.694092 1242.082764 946.171143 620.634277 933.305542 1229.354004 749.853638 952.816101 1067.839600 1035.091919 848.797302 856.630859 856.802612 894.046265 962.951599 887.914307 724.515869 655.048645 319.391907 797.367920 984.975159 1029.374023 841.164307 838.461609 790.363342 849.058472 791.369873 1026.073608 849.561279 136.309357 507.232666 1009.302368 913.927551 835.369507 1014.417053 1092.229004 937.505676 880.545776 902.363403 156.666916 789.561096 692.304016 731.723999 647.780640 919.060913 813.445068 1182.708862 972.632629 950.034485 1043.038208 960.794617 849.261902 1671.457764 1011.704529 1289.157715 1342.117188 802.067627 892.505005 841.837280 636.430603 825.722534 951.732544 979.097900 1116.578735 851.726135 
conv_41_param_0 522.852722 611.198120 574.250305 396.532928 501.708282 604.658142 627.090942 661.483704 700.015198 653.804626 503.320984 686.060852 685.524658 573.550720 526.705505 717.794617 766.056396 430.235931 783.410461 632.062073 521.806396 414.140839 539.530884 668.986206 556.694580 541.154724 603.835266 497.747559 800.887329 764.953369 680.777893 467.983307 531.750488 760.806519 789.085632 765.434753 727.020386 660.223450 564.432678 669.057251 703.651855 480.833771 457.575684 648.848267 511.533936 768.144592 501.201172 481.415039 639.683289 590.367615 690.416504 576.352295 449.376678 626.945679 569.147766 640.493530 815.370422 679.921692 476.853455 552.197815 597.144775 822.232422 483.195953 736.903687 693.869751 678.585510 519.925293 563.330566 844.174683 601.232666 683.307861 764.016968 535.163635 802.366638 546.089233 713.200684 629.988159 602.295898 697.333801 787.029053 532.999268 696.876648 562.019226 555.365601 660.570923 435.780273 659.187683 677.936646 606.688660 544.614258 509.697083 648.536499 424.653290 724.759705 744.429688 633.545593 646.376221 571.319153 603.272339 739.292297 609.300720 575.754578 642.604126 514.939697 677.749878 421.236572 630.265320 474.469635 562.560913 684.270752 660.558533 553.036987 527.396790 642.927673 652.854492 617.687500 612.347656 635.788818 608.686340 722.555359 770.410278 654.346863 581.487610 734.748169 584.020264 556.879639 689.584717 777.809204 769.118225 615.099731 726.483948 556.885437 921.151672 496.481659 631.727295 721.202148 700.553101 673.647949 512.330505 420.255432 803.906921 712.173340 770.721985 714.179077 496.679047 698.562927 613.271790 341.265411 760.551636 702.032104 532.754639 603.002197 667.148560 648.234985 696.808533 683.768066 602.600769 742.791931 621.102112 664.856445 478.324524 605.004395 653.582275 565.412598 774.574829 528.794983 761.489990 669.100159 640.073181 578.762512 664.161011 526.542847 695.063416 703.911377 733.247009 698.387451 518.057190 916.539734 779.681091 601.058533 720.973267 588.773010 591.903381 506.984711 730.174072 571.925537 558.056702 716.301697 785.266174 610.605408 629.898682 665.528442 658.916565 385.853058 650.527039 564.803589 586.623901 594.389526 506.451111 638.659790 517.479553 635.058228 723.044128 518.414124 798.517456 608.607910 628.311157 556.580261 487.560822 545.102234 548.185181 586.658081 628.767761 669.561340 673.090210 503.295288 710.028320 763.525818 551.779785 496.768738 617.935242 615.161072 650.093811 633.385986 713.754272 624.322388 591.650269 706.727051 646.437317 663.018066 762.237976 544.149170 511.821716 618.071472 701.213867 685.142944 714.859070 602.055725 644.315613 545.940002 625.493713 553.494812 627.512268 697.845520 677.440918 693.021790 531.078552 617.882874 634.934021 577.750244 605.116882 413.300507 558.962708 714.297791 543.170959 712.699951 
conv_42_param_0 282.249359 178.404373 265.731659 233.134247 201.158417 172.414459 191.384598 282.345276 248.975449 173.605942 179.104630 222.913239 179.429306 287.533966 209.743530 264.936981 314.083801 261.442230 233.230042 225.794830 269.157654 372.505005 240.688171 202.762848 231.260300 216.225266 240.393616 244.272186 257.369293 222.656403 212.175461 320.208466 175.450943 258.325439 261.590393 222.082184 296.494812 192.920715 214.740051 172.212631 307.473419 191.717377 214.567444 237.279510 221.445267 268.300873 236.997910 220.768311 274.710327 274.646942 256.987823 298.805084 205.189484 175.649857 275.440704 227.350510 252.033905 293.998718 126.755768 194.408554 207.375107 185.468948 200.309357 198.246811 195.565979 241.779800 291.503723 207.643753 173.149048 278.686554 261.039886 137.083908 223.052399 204.222061 241.628830 231.981873 170.128891 189.154831 237.136200 252.771729 257.941528 226.297241 211.523010 228.696274 219.570618 245.921616 281.527405 224.764816 310.218170 253.394592 241.984558 275.344543 198.652145 264.792480 242.892105 201.929428 215.825134 179.917786 276.052643 291.473694 205.298203 190.878403 204.391022 276.769226 291.963928 222.498138 208.800583 229.825470 233.968063 172.902863 178.027679 174.342636 178.549988 185.022171 279.833618 166.020432 187.185638 178.842972 191.739014 277.976807 229.796890 568.344604 242.730164 265.824097 200.206680 190.829208 189.078384 244.085327 
conv_43_param_0 596.917236 1595.457886 1688.360474 793.102539 2022.279175 626.026550 1089.284912 1186.808472 957.416931 1155.072021 668.937500 762.464783 771.924744 770.264771 1779.080078 669.124756 935.885925 728.245789 544.850769 671.422791 1012.830627 1041.452271 937.915283 711.028870 619.035767 966.120544 723.831909 477.718170 873.577332 987.706604 1408.267944 558.278809 743.277771 522.021790 919.456482 519.288696 720.972229 586.383911 898.657227 479.018829 702.382996 1144.075195 1060.766113 580.739258 1111.917236 1053.392822 860.171753 2107.385742 477.772980 423.720093 1264.587891 863.697998 634.706421 727.799805 621.948914 966.422363 920.681091 652.030701 774.696045 668.538635 1026.633179 658.753479 777.225403 636.258850 1640.129272 788.182800 983.877563 768.923279 661.122864 1201.072876 703.759521 561.204407 939.394592 550.197083 413.363068 827.118469 865.529602 387.800476 270.887329 1334.857544 1455.552979 652.283386 622.777161 605.289978 1035.992310 751.469116 1019.022583 1168.648804 534.428284 1034.363770 724.824158 453.225647 720.668518 685.742371 818.255249 707.510010 936.159546 715.629272 741.738525 1421.366089 348.238831 773.855957 917.254639 663.608948 479.049530 433.397003 1248.850586 1362.389404 1369.013672 565.082642 990.215759 451.400818 672.078125 604.013123 823.488220 742.349915 799.219666 967.171326 881.744141 696.254150 655.046631 676.335754 2067.413330 701.936462 2055.414307 789.628601 783.904480 642.764526 1081.369751 934.750244 1163.834351 670.668884 489.634705 719.523499 717.250122 923.030334 380.015350 515.614441 729.586426 760.944458 873.774292 563.156677 1032.160278 700.498413 544.271851 752.759399 781.210938 570.094299 955.029419 1427.709961 1128.348022 836.684082 1388.893066 611.487854 1209.404419 1011.613281 797.388489 949.573792 1038.224976 574.015808 817.896179 914.378784 627.630127 1366.727661 598.104980 880.666626 767.318848 646.133362 1064.439575 1448.636475 1133.366211 436.344238 609.073669 1084.206055 650.897766 885.434265 632.154907 668.790955 744.227051 967.032837 1801.296631 706.423706 807.165588 881.356873 1243.106812 784.738220 1228.399536 565.359558 594.095093 920.709412 663.374512 762.524109 699.418457 1142.859619 1017.429138 580.396362 694.654907 889.847778 697.535522 1584.905518 923.879517 629.979919 692.100830 524.892883 780.259644 1001.260071 922.291992 674.370178 811.066223 523.942200 653.382812 695.528748 817.275024 1460.837402 800.245789 513.999512 630.170593 1730.064697 823.801819 586.146545 659.920471 1290.701416 554.907349 1195.738647 504.584320 1011.169189 693.749634 1229.354614 475.667542 452.213654 707.106689 1762.354736 646.801697 400.178955 825.898743 762.729187 806.157532 757.852905 887.782349 858.597107 787.434875 1669.697388 1846.900391 1163.409668 449.170624 713.333740 424.855194 984.115723 1109.975220 477.083649 591.003906 800.346436 543.494446 586.017273 857.177673 580.237000 
conv_44_param_0 363.892517 394.545532 355.619476 310.320709 437.667938 357.269714 404.682922 387.422852 469.272186 405.681824 532.300354 624.161743 335.779480 391.316376 512.032227 298.968292 295.815765 300.604797 413.750610 374.958008 504.181061 314.290985 262.105438 311.032959 334.102417 430.669617 516.888916 487.145813 483.561340 618.918152 423.137390 343.779144 465.620361 424.946686 391.042267 303.967621 448.061523 384.701752 520.036621 406.870972 441.565338 286.135895 203.470306 370.993988 321.411377 469.524811 472.462036 324.974670 287.788269 191.891266 334.088898 384.528900 280.609558 286.609009 355.791626 505.076813 482.579315 371.548462 580.350952 126.139496 360.123138 306.977234 416.916260 442.414795 437.830536 389.047272 574.016418 426.761749 190.513290 354.967773 407.309875 592.328918 232.690781 480.357941 648.557373 384.901459 323.071442 409.031921 311.984711 376.865692 411.854980 416.846741 317.484985 421.110870 490.317535 450.299408 208.182358 419.642090 366.297729 436.717194 249.278320 450.538757 547.439026 263.714447 274.734467 402.259735 359.607117 760.273315 417.867767 627.426758 333.164337 329.070984 360.838196 219.489441 417.330841 339.724640 414.654205 416.642822 327.727325 345.902557 391.720276 354.157654 391.738098 843.304138 311.586700 399.204193 526.529419 419.799622 569.687012 481.713257 204.908066 303.025269 294.814606 450.884430 314.747498 822.163940 326.169647 352.981567 
conv_45_param_0 178.533966 487.595215 279.785400 405.594360 490.072510 384.885651 435.357178 212.182556 369.972137 387.532410 313.215515 339.324921 249.158539 266.903809 516.883423 474.714600 211.348938 466.332825 310.250153 380.217010 243.047318 257.973358 336.866272 424.960663 234.895798 480.428986 516.296875 285.875641 306.495514 389.897766 293.545105 371.015778 
conv_46_param_0 48.465691 41.417862 59.849373 61.796745 52.820942 71.722870 56.249756 75.003891 59.405334 88.470566 59.521740 31.309702 38.236908 63.940582 45.796940 51.786461 155.678589 47.172943 65.153816 46.198242 51.428856 47.418343 66.698517 81.463867 48.241585 57.328770 60.594765 69.990593 59.061275 63.891335 55.513184 120.253365 
conv_47_param_0 165.945740 106.025505 98.646606 114.036064 165.423264 79.584267 166.547195 189.633179 89.605293 153.131882 91.475014 114.746292 141.207138 123.280624 119.604370 156.936737 110.583542 160.398300 105.644737 135.838104 79.527451 133.704498 98.386818 216.792694 203.704803 127.202515 121.212189 110.267220 165.662292 104.452171 115.630829 89.729538 
conv_48_param_0 130.559448 122.342285 214.921127 72.633080 240.455322 353.016418 118.461334 70.731880 314.083832 112.332283 70.184654 172.975006 178.170685 100.379143 115.022888 189.979614 91.829666 87.828484 116.021912 145.375946 102.569435 102.516937 149.106613 155.653687 159.037338 146.001602 135.205734 173.300995 128.656189 102.070045 112.435555 117.142715 
conv_49_param_0 77.606712 71.140694 82.251778 80.221306 98.607964 35.659611 70.609222 30.878582 60.226967 87.260384 86.957977 71.538574 72.260307 70.569427 57.890469 85.189987 72.766861 53.393051 40.855492 87.015099 62.529533 79.844398 78.744827 65.242668 78.836853 93.090927 81.865227 66.143715 54.550049 58.674625 72.791039 69.870247 
conv_50_param_0 75.342545 216.059479 128.024307 164.031189 106.090157 173.092178 162.499329 137.313110 142.706451 80.294930 159.580109 163.349411 105.955620 149.550278 171.783661 178.639099 148.458679 169.206680 145.820389 126.614464 130.554291 197.719681 153.571274 177.549561 187.086075 155.234833 135.962280 178.237717 158.909836 138.538361 146.902206 182.190475 
conv_51_param_0 334.209229 416.118500 363.687225 391.542542 436.305054 328.568420 436.874603 488.364990 440.965454 398.473633 404.142273 469.676453 488.712067 338.435455 394.707703 464.890503 324.788513 449.727997 585.155884 333.443756 353.965271 451.364685 434.439392 381.651031 436.261719 336.650818 314.923431 412.972748 318.803650 346.533844 255.541443 521.741150 519.169861 323.622192 435.249084 550.514587 350.172516 435.243713 332.211578 498.239014 549.819458 406.779816 161.118484 398.962677 431.701599 332.543152 409.670837 416.129700 260.035767 392.732361 352.962769 456.819153 547.819946 412.647736 412.465027 547.529175 627.449219 442.228546 622.550903 462.035278 485.380371 460.996155 406.077301 491.187134 
conv_52_param_0 477.027863 392.384338 541.622620 512.934448 528.164490 446.246979 308.140289 301.233185 234.816330 294.482178 789.132507 711.292114 458.524353 443.370850 592.896362 342.409912 528.859375 591.769836 285.243713 651.190674 360.013519 296.214081 427.982910 348.604492 369.214142 591.834717 416.242432 576.746948 471.788269 302.775055 281.865509 296.796509 574.258545 487.366608 668.840698 552.838013 528.108704 312.055786 294.603027 480.695557 349.040649 345.893158 325.871124 286.778320 417.049896 392.850769 273.562195 279.535614 424.432312 785.138123 286.561005 383.561676 502.501282 234.741150 256.378143 414.726654 365.779602 606.236877 314.975281 574.462219 402.927338 418.030914 288.573914 582.750854 463.507843 437.591675 391.359375 471.536224 599.649170 561.186951 205.934067 817.575134 338.784882 387.391876 265.921661 529.338318 441.653442 354.737366 507.084381 494.496307 571.548950 328.642426 326.941620 416.402496 431.776581 564.204712 470.714722 324.912231 742.049072 297.554413 673.981812 246.160294 347.677368 633.377563 754.363708 488.578705 631.016846 250.871216 501.878357 562.802612 492.003937 393.231750 444.781403 496.379028 286.815063 300.362823 463.040131 324.530731 524.546143 403.593170 333.687317 328.474457 301.116058 356.993225 396.972046 474.466888 643.790100 372.206085 329.021179 419.928314 297.169067 400.380402 658.182068 389.408386 457.133575 424.555145 276.991364 253.008331 
conv_53_param_0 504.101318 540.428955 237.873795 563.283081 353.828735 250.567841 356.749664 434.692383 292.922455 225.340927 543.463745 704.007629 384.993225 265.915619 469.863495 338.110840 231.081924 420.366577 443.063843 560.348206 539.198853 539.427002 204.969849 509.871063 111.045616 315.154236 474.299042 511.394135 248.467636 343.753937 505.255035 396.309509 252.963043 431.724487 340.900330 446.533081 478.217133 242.996155 478.679779 287.213287 238.195526 377.978790 205.293457 348.179779 550.926208 322.108337 384.578308 684.142700 369.886871 485.942719 297.016693 273.724091 363.624634 332.059448 313.767883 368.821472 377.023224 172.014603 229.571365 293.758514 266.770416 231.242004 449.736633 395.082520 
conv_54_param_0 294.638000 328.043121 610.098938 383.044678 306.286163 367.594543 397.073120 567.693420 366.668060 458.599152 404.715790 343.828369 645.675781 561.171326 331.596436 327.410553 
conv_55_param_0 11.034886 19.864971 12.293261 15.181971 9.742470 19.842665 12.624227 13.853674 16.169813 12.959582 13.546598 13.371873 14.492353 13.893480 18.048513 12.811036 
conv_56_param_0 53.126385 339.375885 106.043373 156.711746 74.831978 152.782333 116.159172 129.780472 97.244781 78.904732 69.081123 55.442379 43.290623 102.253403 65.535316 100.344170 
conv_57_param_0 42.084755 72.629906 35.512367 70.434654 59.495041 55.454697 41.095589 64.865082 111.560852 79.202881 57.624447 59.637432 87.922241 195.706146 49.325134 84.925667 
conv_58_param_0 49.614326 68.106339 49.183693 32.555443 23.214865 49.464676 56.819088 42.810600 46.997353 32.108150 68.592712 32.779179 26.473965 45.988636 60.890400 37.253952 
conv_59_param_0 67.478912 66.782379 107.759109 125.830574 125.565308 93.077759 192.525208 93.868698 103.253204 56.574966 91.693115 144.499939 125.093979 72.654449 156.328156 89.474129 
conv_60_param_0 266.955383 316.712860 290.744812 298.209320 446.473846 317.122650 354.441254 280.597687 417.196381 359.616333 331.331848 270.334747 352.295502 331.769257 311.233612 320.625549 283.024994 261.084076 440.562927 313.792999 329.374542 171.666473 376.224243 315.291595 347.118561 225.050659 257.257568 281.087036 262.095825 254.263931 302.890625 325.464874 
conv_61_param_0 378.326752 267.897552 198.605316 94.580711 142.925583 289.118835 204.322296 195.882263 196.696198 211.966660 183.142685 420.847076 133.864197 216.557816 136.980011 266.941406 274.078796 312.206146 284.221924 294.517120 339.503998 210.092163 360.436310 261.722992 193.156677 250.553558 290.760284 94.805054 190.729950 317.538361 188.776001 478.978333 319.411530 210.988037 280.104950 101.765083 132.454514 325.219238 331.925873 197.657410 231.139084 187.896774 159.087875 128.387360 166.039307 234.367996 217.859985 147.927628 78.719681 201.913330 177.364853 371.068848 222.079575 329.984772 119.258087 239.139481 163.285919 284.347046 296.796997 389.411072 186.345459 252.082108 104.650360 153.500732 
conv_62_param_0 704.916443 646.413940 718.949402 1009.988525 619.791382 559.268494 371.897827 735.072693 816.881775 562.075745 1057.157715 1122.426880 906.436035 615.529663 622.093323 982.474487 771.389526 391.372620 542.830078 504.809174 1373.062988 1318.491699 682.512695 866.087341 444.634186 637.689270 822.727478 1100.279907 497.282227 660.769653 896.609619 821.220032 657.816467 902.225708 1257.041382 602.454529 741.215149 450.258484 659.385986 578.060425 639.874268 621.941101 499.281647 471.804657 494.395050 1063.207886 608.349304 722.401550 505.993317 479.296844 973.043152 694.632690 479.790222 999.660522 636.310486 390.069061 865.789124 874.730225 472.748199 337.030334 843.976746 452.725983 521.749329 590.443848 
conv_63_param_0 307.578094 231.134705 269.320526 228.098495 163.514984 141.054825 270.934326 179.707855 157.968811 426.141205 257.200928 367.567627 122.826385 288.185120 267.779663 202.879166 340.003571 218.973373 303.721344 201.866104 398.647217 438.067505 220.569611 378.801270 199.011658 281.950897 229.874374 193.372284 281.119598 291.660675 229.353500 204.147247 373.683838 330.126709 348.127960 445.731873 318.895935 388.911560 241.025116 318.932404 304.325348 266.130646 201.072540 461.150543 123.125114 198.540787 260.462250 224.982422 350.258270 346.272827 317.818115 316.086823 233.928192 451.821136 340.172424 158.846893 253.960526 330.356537 407.451416 329.963776 255.292374 627.166565 296.538025 264.887451 384.662354 215.854782 502.576721 289.170197 360.419281 248.055984 198.389374 404.711639 376.999268 212.819351 158.000565 387.551971 200.944885 190.693039 261.741943 208.772293 233.507904 317.227539 529.044189 270.834503 482.510864 268.880798 288.582306 287.832153 333.311981 258.804901 277.173157 284.157318 291.082733 209.137024 415.718109 215.845856 273.662903 251.746063 319.958862 203.044800 314.410156 182.920578 299.782532 209.823349 249.807831 260.026947 259.451508 364.143890 177.645935 222.378143 270.842377 168.561157 343.505157 240.483536 527.953674 287.890137 348.252441 422.724243 255.051254 285.007019 459.419373 227.782135 308.733948 262.380859 279.474701 207.935043 241.762283 290.170898 
conv_64_param_0 349.107300 424.145264 392.823517 912.515503 347.992615 1123.236938 442.071930 670.159424 855.511780 763.804504 412.789642 959.079773 512.492981 688.099121 473.471954 664.072937 723.193542 635.858826 755.098633 483.325287 339.664490 890.151184 598.385315 739.123047 629.341309 410.613831 677.622925 523.116577 677.336914 1187.148315 691.705688 1371.724243 
conv_65_param_0 19.926146 56.452625 20.687565 84.432358 26.706768 28.849710 18.803846 24.877962 14.512947 28.627840 40.203308 25.905201 29.071524 24.718002 47.738590 19.871647 42.090561 18.786400 21.572863 41.980778 30.882645 20.886089 22.163298 20.321203 19.183010 33.337563 25.463190 29.812687 46.748131 24.317728 57.635986 31.363894 
conv_66_param_0 157.190811 177.156754 58.397778 139.990921 271.547607 83.629318 196.420410 129.746796 89.518791 107.001732 136.652496 97.150574 105.786667 71.651222 92.991432 136.750885 64.130669 91.987648 95.372200 85.429611 56.839493 83.381439 133.513016 94.088364 67.356125 119.960602 94.750130 100.990379 407.203308 61.422321 116.405418 82.420624 
conv_67_param_0 64.884933 54.578716 66.097946 113.219940 58.279453 92.438484 42.142475 42.945553 63.970242 71.599525 98.140678 51.466022 52.969097 61.214153 62.344852 64.917824 56.592815 158.922867 54.191803 57.245468 196.177231 52.083992 64.912094 86.188873 88.593994 63.055111 67.234810 54.708351 91.343094 55.380566 63.363060 61.025997 
conv_68_param_0 40.097862 88.067390 62.779373 37.517612 33.332043 66.812157 37.507980 79.717262 16.613775 46.887463 31.771688 91.718910 85.820801 47.497154 63.177094 35.308517 46.541901 97.676468 66.583832 44.034519 44.438286 39.091705 25.534197 74.152199 101.881920 42.890045 47.439346 47.758091 53.229534 58.499180 27.852406 58.589252 
conv_69_param_0 174.303467 205.444397 214.115784 290.440186 99.951408 194.415863 191.477585 213.379150 228.876587 212.057831 257.585663 181.922729 148.684204 173.052063 342.150635 300.323303 197.861893 340.557922 127.212708 129.658035 288.896515 197.067368 67.486305 268.543121 222.304916 213.381775 127.072853 243.316818 164.260620 128.930496 227.695312 261.572571 
conv_70_param_0 223.581329 333.842468 165.508408 334.413849 293.632904 95.788002 207.075409 277.849365 239.168945 404.502655 577.106201 312.562042 247.171997 286.533447 275.784271 304.705811 352.585266 400.710541 340.848816 423.061188 325.095703 267.098846 202.031097 550.458740 244.867691 210.326324 326.934113 480.780945 305.283508 228.915985 246.582321 360.915375 261.858765 262.076050 243.741455 231.406708 268.309998 90.063454 307.475006 454.718384 461.211121 352.351715 424.832550 289.163208 302.717499 282.878937 394.301178 448.573547 181.078278 228.862061 362.317688 337.165680 593.499329 245.024368 150.627838 242.232864 169.656433 241.012695 101.825768 353.978149 230.818604 350.593536 265.180450 281.029144 
conv_71_param_0 498.549347 239.172501 813.820496 496.023499 220.756851 389.945068 714.790588 422.245605 585.711487 491.762054 145.590622 703.123474 318.615417 563.552551 495.580597 659.356995 444.858429 365.307831 189.414276 331.445557 545.569031 281.784363 382.211761 521.937500 193.656723 419.351410 325.487579 498.168945 187.776108 439.195343 97.764114 386.321655 338.810211 385.595612 423.796539 205.134201 741.835693 596.525940 543.400879 1189.195068 356.443298 558.756836 524.959167 507.450775 497.660645 1098.422485 223.316116 431.015594 355.263275 268.734924 548.779114 294.107666 204.210983 334.271179 462.885925 347.479248 57.750824 444.516724 555.029968 480.868988 262.368652 229.173920 820.197327 526.937683 450.069061 224.149979 750.465759 1260.872803 205.093979 408.423584 383.183167 220.945419 317.724365 217.241455 1018.325439 365.973236 209.601440 329.447845 194.946579 299.687927 435.103943 162.010956 668.011719 310.507660 150.323044 230.679214 124.085449 372.942383 446.118103 419.156738 1048.544434 127.653770 544.725098 643.747925 265.653290 244.239685 605.127808 331.000092 194.393372 436.808960 433.557800 150.403595 286.607483 327.898743 345.895447 52.478519 441.056000 210.399704 222.655075 401.861664 578.920654 389.834808 796.053284 206.057816 335.339142 522.582336 373.523438 605.171509 326.899292 543.679993 647.440857 805.496277 789.949890 761.900269 472.214539 290.826904 668.488403 545.458130 
conv_72_param_0 584.992859 1306.386353 1192.172974 906.495911 559.258057 716.310852 684.248047 777.981873 614.464783 482.357269 515.335693 514.914062 1207.248901 1148.087280 798.670593 841.471863 1042.875977 342.996277 1072.902466 857.561035 629.938232 695.117737 729.746887 685.520874 959.302673 877.626404 891.120544 1571.002319 1043.018433 643.555054 808.536987 926.879578 296.027832 849.094482 1100.291016 1167.526245 402.661591 663.795288 940.389771 1033.230591 549.662048 894.445129 627.506531 928.388428 437.591156 780.697937 625.599731 937.106140 579.280823 573.396362 692.761353 351.060150 1684.304810 1172.852783 712.374023 619.838379 768.499939 884.581482 329.130066 1148.942993 689.423218 698.305115 812.912781 1211.094482 871.490662 798.120239 470.498108 626.210571 728.426758 1121.283936 611.187500 840.242737 731.327209 920.487366 660.790771 932.644958 574.167114 945.603333 1108.830078 623.178223 850.660522 569.203857 593.050964 467.062103 705.587036 1122.492065 1494.001587 807.459351 408.152100 454.469849 943.195374 445.538177 1116.774780 1038.832764 895.265076 355.807159 1072.474854 1006.097229 504.120697 609.796875 711.950134 1138.266479 610.028076 1337.317505 388.390839 787.997986 935.901550 621.469604 700.456482 492.509949 542.342712 706.068726 1190.592651 519.398438 584.256531 671.028137 926.209351 580.934204 627.386597 836.055725 769.200439 712.549988 625.318604 417.578308 1495.712036 608.348511 519.972473 656.518860 
conv_73_param_0 320.386444 250.247452 242.502457 321.035889 291.896240 240.457474 212.904831 203.433838 211.534348 309.346039 230.893723 258.838409 259.296814 187.397552 240.361282 264.163147 233.529434 280.410431 108.592209 322.077362 210.779724 205.730606 156.617035 252.594055 105.430237 226.771042 235.894363 208.724411 301.488312 215.614197 218.109467 286.362244 275.301971 317.078308 227.691360 256.902588 174.304489 310.320343 242.383209 258.130096 244.308014 177.516907 304.684998 254.897278 249.164078 143.258362 308.316406 302.404572 280.764618 116.834763 172.221848 243.982880 384.227234 153.362137 236.596649 282.615906 234.038574 252.550552 246.423813 297.713379 227.094238 257.897247 215.003128 295.468658 271.796631 259.174286 238.830948 206.609085 250.452545 201.070984 251.589111 82.958801 172.909317 235.328033 208.282028 264.790588 135.746246 130.940918 256.906860 319.585175 137.240082 270.742676 241.587128 237.710052 273.942139 280.276062 163.824066 307.827606 272.343781 303.559601 250.539444 167.652283 281.534546 168.793289 275.201050 219.059174 245.243958 225.460205 272.684570 264.909821 201.654251 212.770172 240.037033 226.181122 186.805008 190.815384 177.264969 208.107727 232.584839 241.946991 155.095108 225.071381 191.161148 183.956284 309.882050 214.001770 203.951187 264.488464 301.729614 233.472809 246.617508 177.777954 251.549759 267.462830 245.297394 337.941101 230.127640 235.719879 315.883331 624.028137 254.375504 431.184143 308.912231 298.033234 308.987732 207.315262 210.866791 214.812256 234.991089 354.394470 264.306152 264.216675 275.413544 277.383881 346.759003 183.457672 338.330658 324.967163 715.377258 502.581757 215.931412 170.929245 218.494995 305.254333 396.760284 529.125244 198.045547 529.156311 375.762054 312.733551 197.638794 285.048004 239.438095 257.173004 345.862183 384.151154 234.756668 345.258026 256.148132 372.783722 152.197342 218.512589 446.494049 283.949554 252.336823 290.226593 396.499359 330.687500 368.075317 305.072937 176.290466 240.605972 310.543152 384.079865 213.398834 147.343445 269.622803 294.261230 223.448929 326.422607 429.946411 421.636200 317.725677 485.234619 599.672791 336.421661 330.495728 446.021454 305.575104 352.575439 390.692719 284.381378 289.790497 386.138824 344.494476 389.696777 390.990845 309.155212 521.668945 114.727829 353.094360 170.242783 345.822937 739.565308 291.236420 199.065292 376.674255 343.597565 552.459412 491.990997 214.006058 266.308289 283.142731 308.658264 629.398682 317.839539 357.906860 421.188690 393.772522 555.334290 263.728699 269.380676 375.336761 340.994507 295.711243 426.667206 370.047394 436.209656 755.043518 568.573242 325.092407 403.922485 321.621582 315.984985 270.359222 201.087936 167.450745 400.398132 378.290833 273.113403 342.898590 274.455902 351.775604 149.081482 330.424591 532.444580 
conv_74_param_0 162.743958 229.977982 135.134537 144.663071 204.471985 167.866089 343.351929 179.279785 348.432007 128.493301 177.408340 64.351105 82.628860 92.384590 116.656830 113.276611 178.536346 90.033638 235.187363 577.707153 171.327972 161.057526 170.861618 160.981018 240.059021 208.707596 199.507828 154.434845 188.903076 125.390068 185.998718 172.520340 182.431458 155.087692 165.279236 100.007210 534.771729 317.884125 132.684982 385.020782 166.722122 152.035172 242.965576 248.956619 183.442642 145.725372 148.442642 66.721581 191.963440 102.696907 170.463531 114.237541 104.609566 156.600052 151.421631 123.020950 121.992287 173.420792 70.247543 163.254379 139.524979 189.322113 77.899261 185.620193 
conv_75_param_0 66.182480 122.480164 107.564354 46.716431 190.938110 77.856300 87.777939 73.709343 490.291229 125.223053 113.442772 110.132896 95.209274 46.113400 123.904434 96.549049 82.693741 78.670860 53.004551 176.637497 67.172768 107.034294 60.016453 229.192368 84.635521 180.440552 88.851051 59.518368 54.417973 132.488068 92.971947 108.397026 70.827408 43.552891 280.152618 45.776314 48.487972 68.624222 122.795410 63.614487 81.941147 49.457561 142.278381 56.250969 104.380188 61.041946 58.808857 79.539474 90.696785 133.160172 60.695354 232.560394 58.342625 60.881790 101.549690 153.060532 259.446655 86.853104 88.315559 99.816483 94.473198 63.479599 178.921539 84.889114 75.100464 78.537491 62.714249 113.449944 74.548248 77.542435 90.723160 105.642570 115.431129 121.267006 138.755310 167.956482 163.752182 120.205544 58.714619 44.917591 131.955215 135.069656 74.826508 138.829987 70.429688 174.754196 80.519966 53.825684 92.850494 116.132057 45.877502 133.543243 87.232353 382.203705 129.147675 150.343292 107.933060 58.791019 104.428215 100.577423 274.218140 33.875904 293.274048 166.245911 51.816864 62.579700 128.735413 103.492584 115.779068 132.103790 94.111679 153.691376 125.678894 117.125099 229.092392 97.073387 85.963669 625.940552 155.751312 363.816437 106.387802 53.546928 42.462330 78.911819 92.586205 110.827492 45.860451 155.946289 
conv_76_param_0 475.162994 498.294769 473.220154 346.779449 368.684631 410.939728 501.897919 543.610718 459.764313 577.941895 369.715607 403.579468 633.866455 485.805420 498.760742 432.332855 484.678253 567.241943 423.376465 424.883759 706.142273 392.859863 514.807129 473.618561 665.267212 533.225830 349.006531 371.107330 547.784302 391.431427 539.060120 371.753815 403.146118 363.482361 347.500122 367.336212 454.762207 316.020782 442.197510 425.139709 483.072449 304.054657 515.660706 240.204208 312.408691 456.398010 428.759125 393.974243 396.901672 265.295746 434.353668 375.545288 344.712280 207.995209 431.388489 482.790863 316.709778 396.213562 412.741943 487.274994 429.856506 429.946625 398.675446 514.191162 291.437988 942.731506 590.560242 1439.573975 387.400604 319.491425 446.193176 1257.655029 382.612122 190.536713 2310.471680 1665.268677 175.410690 3634.579590 2496.729736 1716.381348 362.438110 200.936569 1579.804199 378.104462 1229.067383 232.186386 706.525452 183.471039 321.039581 131.991714 1502.483398 646.826111 1656.584961 1828.824097 263.264984 325.296844 1210.742310 312.930664 158.881607 342.254059 124.348244 426.074463 2510.641602 2748.043945 1982.556641 249.723862 273.964905 1076.625610 402.402618 280.909241 166.092819 492.731323 2167.502197 3604.792969 357.344635 3583.655029 170.156189 375.166138 704.063293 3184.832520 238.003159 220.038559 2159.345947 686.368042 1892.858521 2618.627930 462.667053 1344.111938 553.071960 643.508179 461.607269 521.476379 718.011047 567.795959 725.767639 486.204346 456.320892 782.846130 763.334290 580.247070 497.945648 782.615112 673.893311 571.994995 640.604004 994.001343 416.127869 680.443970 632.765015 403.717102 524.223511 675.853394 622.872681 633.463196 978.138916 772.901367 584.492126 560.140015 789.330444 880.408386 485.866760 453.899902 429.333588 394.526428 496.454895 733.952820 468.289948 387.605255 384.739716 457.252960 576.081421 425.287170 568.357361 373.305481 453.650696 630.059021 414.399963 293.487305 601.377747 453.956329 627.540649 478.732605 575.964661 470.128784 335.659241 667.273804 376.934357 309.918884 596.540466 390.067780 619.091187 550.773499 126.298706 1369.385620 565.662354 1318.298950 183.087555 111.556465 1087.583374 981.696716 865.968872 220.935364 1016.682800 513.001038 1109.608276 252.829254 89.765045 470.254395 454.333435 1547.625366 251.080551 531.665588 925.783569 1604.007202 1219.010498 149.452225 2395.172363 1788.617432 150.553131 724.811279 1296.083984 1510.910645 1274.514893 1924.837769 1368.385742 1403.670654 1313.601440 2532.975098 1001.834290 1547.225708 1249.230469 123.878105 1474.912231 1613.683716 88.376328 116.246826 2398.794434 330.579224 857.121460 117.164871 1738.234619 1800.258667 90.661797 135.454330 1494.663940 1494.655640 106.089882 300.995880 458.352203 1732.438477 337.796356 2217.440186 1984.544922 108.584549 2195.077148 731.983704 
convdw_244_param_0 119.580635 35.111977 64.836174 26.683691 258.231079 334.710327 128.518570 30.777529 162.545273 208.024673 21.001209 21.531864 150.136459 26.722828 11.514071 33.205242 307.870575 165.509460 32.745552 185.375946 120.779747 267.662842 148.105835 292.148315 362.218872 177.564316 22.210005 63.556946 18.351994 32.857395 174.782684 243.700668 39.871098 533.929138 144.170685 301.244781 169.555893 103.133980 12.179379 17.847197 26.854177 111.709175 171.036499 74.805779 432.112091 142.861572 148.315842 104.906349 25.268015 27.643524 171.252243 24.054432 154.623093 259.335388 69.691917 20.345913 146.795563 146.244675 17.191183 140.514511 27.469131 24.609268 124.398628 31.971701 590.970398 60.440723 73.433556 20.018066 237.151108 189.088928 56.695377 36.530777 72.423271 770.542969 55.974609 93.755997 46.467785 1209.920044 256.719116 173.199448 99.193428 30.018608 161.303436 137.454987 51.357960 25.313320 34.809334 283.939636 16.154163 36.588470 263.143311 67.872665 31.223150 32.269482 33.115597 33.742908 33.024448 34.612213 39.065926 15.919489 62.698765 37.564682 37.009464 218.476242 18.532499 39.815048 206.680832 616.828003 28.919922 214.612869 105.828369 771.682068 19.522552 23.260195 166.021530 922.481506 24.343451 69.855370 227.628540 182.562668 130.873810 24.022837 960.205200 34.513039 23.823425 234.895584 16.206665 31.484425 
conv_77_param_0 863.963684 1062.940918 737.667297 635.829468 857.428162 655.960449 954.926147 709.559143 442.867645 1329.545898 1082.868774 833.190735 565.592773 470.456024 760.841003 758.393188 587.098694 997.561768 896.853149 375.117126 1135.506714 762.582520 529.853760 550.655273 673.873108 670.533813 931.222717 1523.617432 399.145630 1159.456543 788.591003 711.029846 1098.043579 956.133301 478.959076 928.468445 1687.314087 612.823059 933.271912 548.345947 1156.622803 1197.877563 630.741882 610.846619 749.938660 802.042114 866.607666 960.848145 1013.565491 443.376862 915.186646 738.286377 982.477661 535.091614 877.621094 1095.435913 237.430038 799.060608 721.567200 448.450012 1482.907959 1027.804688 719.389771 1088.657349 630.959473 658.646790 1452.670898 877.347900 442.380035 1211.234985 1053.533813 929.872559 891.934204 924.383972 697.809387 899.830139 583.389099 1085.288818 929.493652 963.873840 1106.868530 941.672424 970.390015 859.139648 850.363708 861.085876 567.173035 597.802124 756.090942 1185.467651 702.797424 734.938477 993.734985 502.090912 666.483215 930.754272 931.411560 642.276550 1855.937012 761.667358 534.075928 876.146423 773.848633 622.497925 851.352539 723.798035 854.914185 492.059601 1005.138855 956.382324 897.860779 1372.463623 980.319702 781.963135 1195.785156 794.115051 695.128723 330.859955 803.851562 418.075470 969.171631 2133.084229 606.531677 965.533691 1044.781494 984.603760 1327.780151 969.231262 
conv_78_param_0 174.802353 471.846039 401.378662 317.313934 650.820923 346.695221 309.299042 539.940125 430.301514 492.968048 472.946625 273.863159 641.943909 427.114349 585.763367 506.297028 382.445129 452.754913 390.200653 592.684448 454.781555 493.489075 279.728210 484.750580 232.274826 352.134369 583.180847 412.181366 559.148865 461.511292 382.290344 295.652313 499.449646 465.884338 335.413940 533.335449 426.364227 457.358612 509.337708 463.195435 470.191986 527.567444 311.114868 365.959412 370.463989 366.329559 460.883575 378.705627 468.144714 476.871429 472.149933 522.090332 411.415100 494.054504 235.135971 338.865875 643.969360 371.078827 502.839264 405.557495 370.800049 556.264404 318.465454 354.701508 369.782684 320.669159 475.863068 191.439514 440.305023 549.467896 542.270691 140.430939 500.425842 727.385437 317.147278 375.108978 436.864746 460.918854 527.720154 454.215302 425.081177 494.963989 345.247772 524.657898 393.742249 674.750061 519.462158 230.250687 277.793365 262.742615 294.295502 312.517639 455.926941 513.476135 498.865845 368.653351 345.337585 483.730011 231.450302 268.063171 482.137115 449.021790 608.055298 512.786377 543.339783 368.762573 564.910217 408.714325 571.169800 431.311646 454.976868 725.489990 312.611328 291.450073 513.869141 435.661316 498.286438 238.461792 411.663361 300.710297 384.888672 514.268555 478.497803 240.087036 379.987946 583.414429 569.986511 410.615906 396.711456 327.234467 633.124268 442.237946 474.704498 607.365845 490.682922 518.324646 659.649902 447.011505 712.765076 489.452118 473.421844 178.782791 476.005432 231.337372 481.908997 489.790222 430.859375 427.156952 407.420288 490.090118 501.432831 545.433044 302.681732 237.465073 354.081024 478.465820 411.254333 568.685242 537.247009 572.720581 542.794373 334.902496 412.505493 472.162964 438.292297 538.153015 283.144318 304.550385 236.257339 308.781647 545.839722 264.282135 307.433502 659.418640 409.906921 274.249329 529.636414 446.450928 237.214111 320.453186 498.284454 343.432495 306.844971 468.107971 504.688904 457.165436 452.696320 481.096710 398.177246 475.165527 533.928589 827.075195 367.140656 431.197113 219.200378 253.963333 341.480438 415.967682 363.081879 274.518433 172.031693 568.519897 581.718567 569.586731 436.487335 193.182434 489.787231 432.342010 467.878632 337.051147 655.737793 353.236877 398.353790 425.837921 333.739563 258.414886 348.604858 514.160767 679.086548 550.463745 667.152832 436.147064 414.120361 362.306244 506.579529 368.772827 464.085480 258.889526 516.080322 382.798401 175.371307 345.653564 498.509583 486.959564 320.120544 397.023987 551.795288 392.956512 573.946960 704.336426 434.437134 583.043274 435.971252 565.480713 552.236816 649.731384 661.751953 553.591248 453.143280 582.507446 564.654602 266.709564 411.195892 245.961212 447.904297 184.738434 
conv_79_param_0 853.098145 883.812195 577.531128 464.174652 612.684143 526.214905 581.289673 589.390137 1046.549438 713.887634 590.058411 861.700684 820.552612 619.514465 418.771423 1062.146118 350.907257 742.444275 479.574890 1830.220337 764.252747 677.367004 800.306641 646.121948 352.033966 482.816956 564.218506 702.586243 433.683929 442.253235 601.418823 615.910950 320.911926 350.966064 519.490051 760.004639 363.107605 219.425598 445.909149 347.750031 442.032623 564.766663 351.809326 293.898926 588.496155 365.767151 327.854279 666.993530 372.709686 511.629425 765.425476 553.169800 738.108032 335.452911 563.884155 576.169067 2038.160767 719.918701 676.162170 512.094910 670.707397 420.415314 453.620392 504.403229 391.874847 414.724091 243.797577 746.342407 471.807953 484.912262 515.861755 435.914612 630.657166 760.824646 616.829163 435.331757 979.515930 483.065918 799.997864 486.564972 607.176697 411.490295 479.847443 245.227295 487.713623 864.247559 609.453491 442.156494 507.195923 548.153076 734.173035 523.328613 372.154999 492.720306 407.987946 664.906677 449.337372 890.565491 354.531677 326.403442 1270.762939 463.999176 1268.436523 591.252991 388.884735 747.126526 296.991577 1526.493042 533.571655 815.238281 558.702332 799.178223 589.943909 527.616577 777.685974 507.423889 687.102173 1410.799194 587.959900 978.883850 595.625122 372.277130 1136.352295 498.040863 531.672913 379.430023 338.131775 434.089691 
conv_80_param_0 1066.537231 1132.646973 960.863098 380.309235 767.593506 445.579315 223.289841 518.790588 500.154327 1200.507812 1117.779175 813.697693 400.874512 806.024597 856.199402 615.508667 688.270691 1043.567993 571.542603 781.672363 711.570618 429.039795 230.300583 1740.864136 1197.264648 969.231628 1067.678467 755.382568 1206.079590 610.571960 412.182312 308.024170 628.973999 927.495300 492.774658 692.472534 710.438049 1367.084717 399.985657 806.221497 618.913391 1045.987915 840.553711 1034.592041 467.603607 452.952240 1035.010986 788.056396 575.173889 886.966309 959.486450 2866.027344 422.650574 902.008301 871.587341 1004.485779 460.584747 677.238464 454.841064 2771.424316 558.589111 772.329529 1131.419922 904.390076 549.076538 695.436768 633.586975 524.846313 162.347412 375.035461 394.479645 599.780823 911.997009 528.010681 707.562683 601.822083 962.881897 877.752197 685.095032 985.859436 759.771179 722.700684 780.860535 1025.316284 1319.629028 688.359985 1072.987549 536.802612 967.917114 934.846863 784.143433 744.250916 562.802795 623.415955 738.563721 532.786438 421.103088 288.550598 790.010864 939.842529 692.847351 482.542664 611.497253 403.538757 852.307556 872.602356 1320.480713 937.069031 994.618896 539.778381 1220.453247 787.206787 569.595337 736.387207 656.305786 839.831299 799.107422 867.709473 717.051392 326.368164 409.638733 840.352417 679.947998 795.303955 556.109253 671.828003 997.934998 557.832153 1054.578247 486.082611 559.558228 714.275391 732.413208 539.627014 832.882568 896.335205 1094.323853 1869.333252 784.569458 724.015503 638.589844 844.898926 726.092346 403.157532 438.080505 1318.393799 427.008789 617.765381 1892.069580 831.207214 748.716614 486.846588 860.554016 904.019226 1097.051514 393.251831 653.780273 644.666870 866.468750 762.541016 564.468628 722.305420 907.949768 322.118042 449.937958 659.049744 647.376892 548.277771 766.517395 407.001404 868.772644 641.814087 700.173218 766.069214 970.359192 730.323792 294.628265 836.714172 602.905823 808.143066 684.296204 323.638977 495.184448 986.322754 606.861023 480.591064 465.915100 697.588684 584.666809 1379.254150 902.218689 597.442383 867.593933 259.009674 1167.230103 680.247070 927.430176 647.116760 517.350952 497.997681 903.020020 1199.958496 551.769348 688.020752 915.725098 790.908081 578.238770 848.924377 428.746704 923.837585 318.228333 714.901550 650.559326 1066.346558 889.573486 517.439209 770.990845 681.471558 368.521027 917.975769 512.955017 482.065613 836.203979 786.732483 1066.010376 475.677216 834.977722 361.728149 1155.178955 398.890594 706.335815 1001.460388 603.077271 747.568054 394.067871 1338.186768 696.177673 625.003784 1390.665771 600.369995 726.858887 563.862793 280.575592 497.943726 663.081055 641.952332 1336.226196 1010.951172 472.429199 237.964706 975.911438 656.860535 910.935791 1629.523926 1260.795898 697.317993 
conv_81_param_0 94.143700 37.202477 169.541061 49.694008 21.279272 41.891232 128.001526 49.296406 43.864307 83.406128 67.057869 20.273247 18.338991 98.557922 38.586979 92.907555 
conv_82_param_0 42.006088 123.408630 148.768997 74.978752 309.394806 33.881001 213.464584 183.892792 319.009979 117.636429 37.546902 51.416058 57.184917 260.015961 32.564457 301.077728 
conv_83_param_0 80.078819 82.675140 83.097763 77.088326 
conv_84_param_0 170.066772 126.131454 43.245319 36.945965 124.784065 64.816452 267.022522 79.990028 123.774292 63.256454 63.020195 67.946281 40.798531 110.315689 339.270813 38.120594 
conv_85_param_0 239.783157 54.319229 31.548779 90.973106 95.072983 284.397217 34.392551 193.246628 151.023666 217.283798 147.509399 231.303101 191.002243 222.502304 55.611744 58.274040 
conv_86_param_0 94.994888 91.647636 76.408928 96.331848 
conv_87_param_0 264.229462 149.728592 276.208954 46.718063 59.586277 54.926773 141.855942 43.800228 140.082245 241.445969 87.283157 139.893585 114.912758 121.894707 173.607422 221.215668 
conv_88_param_0 147.897873 186.320312 90.547668 257.836792 69.331268 59.542252 22.263767 91.624290 63.899487 181.212875 157.799652 56.269993 202.203857 48.494366 21.800920 39.523033 
conv_89_param_0 111.247223 85.277374 106.771759 117.266006 
convdw_245_param_0 319.319122 598.618530 554.004761 126.693817 251.908600 612.494629 344.321533 142.040222 458.347076 180.838089 386.109192 379.941254 172.349365 485.347900 292.255676 511.878174 305.109070 540.678467 185.183716 645.722107 372.235626 212.502182 382.925842 638.479980 250.110748 479.230743 336.558929 228.104996 287.638824 726.740356 162.211044 297.799072 609.824402 535.093140 196.041702 184.656769 178.339722 665.749146 400.485535 171.555557 357.146790 476.409271 687.617737 442.533447 210.766464 339.938995 699.718201 345.158691 183.367203 269.733612 337.368530 492.691376 445.124420 222.944305 190.586044 502.929230 495.282928 533.766479 338.622314 564.390381 234.111176 634.088623 358.139526 306.583160 
conv_90_param_0 140.869461 129.409515 96.242004 138.801193 118.761208 185.728348 291.785248 201.706802 140.165802 145.197754 200.072357 230.327911 134.209534 244.465210 251.904099 246.678894 267.758514 118.629860 202.011307 227.013351 168.485550 219.464371 339.910767 211.510712 160.719589 231.069397 149.927719 128.424820 155.675903 128.402832 271.558777 255.911240 238.639526 213.545502 160.367859 193.673737 113.863838 279.663574 267.338593 142.971420 256.722839 251.142899 191.477173 432.827484 210.221100 276.563934 180.236099 223.602310 188.428238 177.636368 224.900635 165.122070 211.611679 178.233063 119.254890 253.775192 283.911194 175.937103 185.663391 179.979462 291.563995 311.246796 158.686768 220.357010 
convdw_246_param_0 150.818863 159.462296 200.964905 78.866264 415.132324 131.288483 97.694397 149.811310 516.421631 462.897064 155.302399 225.636017 788.849243 94.025520 285.640106 51.735191 179.622803 458.103729 197.681519 85.717216 296.949188 124.666183 45.512844 145.257797 174.643860 317.677155 805.886963 100.217209 123.228134 271.029999 92.987953 161.800888 54.248985 127.048607 144.132858 115.805794 353.089691 151.182327 207.306137 234.277405 141.887894 242.031937 168.000854 62.366108 486.711060 72.740913 339.902374 125.257072 365.979919 141.570587 94.452362 79.476051 78.429306 141.762207 62.167286 211.256439 144.680435 350.191528 635.679626 159.519363 34.584675 54.131817 210.288086 181.574432 
conv_91_param_0 96.183548 184.059631 82.901237 208.616211 163.706909 134.377182 98.642776 86.184380 75.117134 140.260498 200.439072 151.376053 161.267380 164.478317 187.713211 109.223747 226.859741 272.355804 236.936050 149.227615 210.371887 176.993423 156.131744 74.192085 99.744560 310.977356 98.852753 154.262955 81.459160 151.458298 88.303123 210.047592 155.879105 169.031403 84.928078 149.489792 160.212006 154.635223 139.240265 190.665482 138.723007 177.605408 123.890800 80.431465 223.542801 436.040497 161.238007 77.472488 183.889862 85.093460 205.431290 70.826836 94.716988 165.339828 122.053215 90.152451 121.859314 120.065689 78.252388 181.235046 137.215347 130.078705 130.293701 96.281395 
conv_92_param_0 160.950500 146.698257 121.996246 145.467560 133.725449 194.101486 194.101486 166.408188 210.774719 169.223160 180.246704 193.379929 178.637360 165.245239 126.137733 264.056854 217.835846 193.092804 125.528961 
convdw_247_param_0 230.922806 161.164871 283.720673 146.922852 307.700012 133.698837 362.116364 166.384415 245.616898 241.625397 140.854233 173.014786 324.492798 143.370468 246.609772 514.253235 202.578018 98.121231 116.573105 141.916321 58.446762 105.037491 257.821198 221.387512 115.215569 159.519348 229.504059 140.119553 122.146851 287.202209 169.136444 139.122223 234.904373 360.916931 134.527390 190.511459 218.166214 173.684479 111.969185 66.563988 206.131790 326.306671 151.734726 235.510590 355.063141 182.555374 350.171234 285.354614 303.834076 44.833004 339.835571 194.111511 222.557724 372.299255 80.328758 205.005112 93.125877 174.405991 274.652557 304.373291 85.313866 57.894199 283.055237 166.297882 134.503204 101.563416 193.044937 69.046356 100.027924 146.760330 155.253754 116.800270 169.163055 215.848770 303.637787 232.259460 185.072891 263.353516 226.199783 224.643875 176.261093 90.590073 145.901947 124.068741 144.279938 147.622192 319.331512 178.559494 87.261147 266.307587 165.626038 121.998955 304.864075 308.325500 216.035706 43.925858 228.987564 138.450989 200.799179 197.114975 130.830261 92.848915 262.696350 184.234772 191.681305 113.992798 144.538681 152.927551 93.055847 178.172211 213.942200 134.582642 154.836411 202.907822 94.261406 266.062744 206.774506 183.357864 241.766708 171.929611 102.909698 244.413300 58.714375 158.977524 155.877487 421.178497 311.674713 105.773804 
conv_93_param_0 261.606934 153.868744 412.165222 138.978699 284.460846 275.484161 203.677216 269.137268 261.744019 228.444351 162.506546 315.419617 185.898163 151.026794 154.589951 285.073853 158.768707 194.925217 216.381119 304.897797 257.169891 125.693245 312.686127 299.234283 290.951782 216.366928 224.702072 216.828278 257.304688 197.705399 173.118744 318.245575 167.619003 244.024658 246.938477 240.620056 148.129456 192.743271 289.594666 215.002380 183.612167 207.528168 235.952911 221.034225 166.330002 244.548904 284.848022 170.468872 192.526947 185.612579 280.428284 221.057358 154.279556 148.035095 303.650360 299.444550 184.019180 212.841003 180.663956 140.719879 224.830612 139.759018 271.606049 193.967865 
convdw_248_param_0 26.302374 655.109131 296.054474 141.349686 116.001259 216.119949 603.096436 249.845947 87.411613 170.636002 248.197113 134.766678 62.586563 210.302902 644.708862 87.919739 286.312897 177.353989 104.198982 135.230499 155.663681 585.738892 265.318787 191.219681 91.636948 241.492477 44.068176 236.994843 124.350105 319.281921 235.374390 62.879238 95.731728 348.437256 195.148819 60.082336 274.124481 55.943340 168.066483 99.129318 92.796753 86.134933 206.144623 227.439178 76.476234 211.780075 106.576355 254.842514 148.027344 268.155670 226.433365 324.774689 263.852844 150.896683 48.124645 72.950218 192.533813 134.134079 81.899872 54.323845 115.624535 274.015381 381.906647 340.141357 
conv_94_param_0 205.855576 134.515945 276.459747 175.723068 137.297821 117.850319 89.010155 92.834557 239.664917 135.926132 139.392029 233.283920 173.627197 185.235443 133.269547 148.177338 96.744835 77.731728 220.881744 228.373978 215.393051 131.859512 170.187027 115.123688 246.533035 204.836014 274.724457 203.023193 100.108070 374.387329 180.831161 111.958946 181.399506 180.265472 152.075150 111.313126 164.126709 165.069702 111.743271 72.952812 153.804810 150.288757 105.355591 101.964218 90.483437 187.044891 185.687332 119.498161 111.489967 220.795853 98.894295 99.818581 184.251053 185.618637 74.844795 142.488739 377.057190 137.048019 98.963379 221.677719 120.495468 168.119675 138.524445 133.200775 
conv_95_param_0 135.749481 146.285721 155.932861 162.053589 158.017014 166.408188 200.846329 179.376556 199.613205 195.855423 201.781219 218.201340 231.196442 159.274948 163.685333 179.129471 197.641342 193.523804 154.085312 
convdw_249_param_0 127.464867 138.692429 136.635849 112.510567 291.680450 279.252533 127.076256 46.310474 181.953049 76.151863 237.922394 165.303207 233.980499 365.676056 221.693726 142.147156 222.035904 232.068512 111.935272 79.718910 59.627041 205.701553 106.534393 202.655655 106.925194 124.673317 241.770416 230.144333 74.374397 114.701164 157.807037 173.765625 294.350800 151.090393 176.963303 203.312057 193.082993 89.272011 328.794403 201.623932 57.995960 200.887085 455.919617 469.685822 44.578747 253.482437 200.623993 156.580933 330.298828 158.527161 116.525124 390.513031 177.956802 185.805115 67.699989 232.984100 234.579498 127.662720 105.095947 21.631266 280.630219 435.817169 77.965492 232.454086 170.453888 64.201332 185.136093 212.929230 208.754379 223.318176 55.793060 146.728165 214.605270 226.433212 324.774872 38.519176 119.706833 228.150726 139.719513 91.909576 171.252655 209.014221 154.840439 115.082077 155.227737 187.476532 119.429199 130.170609 213.870300 137.005402 205.438919 241.139740 171.194946 89.535545 157.963608 121.298584 220.106659 168.982605 134.769287 127.161896 167.100327 93.896072 88.024307 45.515808 279.920319 227.238602 246.643860 209.598740 117.040131 280.231781 89.648895 206.807999 126.331390 34.735275 196.316742 113.016060 64.309914 211.751709 157.794922 185.691956 269.183197 101.902527 83.022018 113.454445 40.987812 38.653786 174.842834 138.939255 62.750015 333.518005 151.437088 330.847107 155.465546 217.597549 325.348236 140.878174 122.430641 181.501984 261.182373 61.981445 224.166290 126.378593 192.671921 174.658264 189.629669 188.568497 133.068665 126.300819 419.771210 199.419769 78.462555 51.934654 76.326485 392.264923 192.306961 126.221107 222.188034 331.248138 136.853058 120.467430 276.146271 194.142456 142.978134 374.836029 67.937172 69.835480 526.153870 204.722336 45.805855 235.369812 120.014252 278.113922 106.969627 116.356369 153.047440 196.942078 128.083679 186.316544 56.371414 58.505257 55.040585 238.658112 186.040771 132.697861 131.002930 310.637268 152.959183 60.728115 130.942245 128.173187 117.436790 162.526047 325.069031 180.874313 128.432816 192.335175 153.745697 136.038956 72.328407 112.270348 111.727982 151.118988 125.320351 131.396408 96.744644 116.522949 200.796967 190.879700 159.904526 297.357269 102.047050 216.477066 179.649826 98.103638 164.009201 137.055481 162.472443 132.601440 268.503174 133.418121 75.650795 276.329010 225.300812 134.052628 78.365303 139.365601 219.141144 107.606720 37.756035 182.379852 106.514412 175.221741 88.000031 196.439087 135.387527 44.248528 107.373779 154.506134 62.523930 51.481148 535.859802 145.808563 229.090698 238.269897 106.168739 314.185028 41.027565 74.383118 358.581238 173.113831 36.966343 360.349976 201.058731 35.940216 150.225510 112.184929 
conv_96_param_0 392.935547 391.845154 364.957458 243.346939 288.957672 593.377686 540.867920 319.689362 320.947144 161.367325 484.618164 348.850494 549.677246 377.085388 501.416718 534.501282 330.868622 567.963379 183.846649 545.283020 226.334427 560.830627 295.996429 655.072266 595.519104 421.811432 367.112000 437.172272 463.932220 466.849548 403.485077 509.332581 283.472534 394.756042 342.296539 480.855682 173.007507 517.366211 532.052185 448.109589 297.640778 384.415070 497.545898 518.766174 551.024048 385.397369 241.260315 420.724030 352.278809 335.643494 361.116943 264.003113 310.994537 302.552216 430.514099 445.787628 204.559128 496.031952 450.623444 513.992188 615.631165 377.698212 271.323853 332.631317 
convdw_250_param_0 167.311203 179.343582 101.810219 60.654526 165.392990 88.750839 147.030701 110.004639 107.180962 95.520073 210.474106 89.234573 94.986931 122.442207 149.547119 199.152115 74.603844 34.360538 111.883842 198.430511 111.935173 151.736160 145.115814 100.320099 379.754974 193.099518 272.585693 263.412933 102.858063 102.594482 169.799255 143.552444 96.549568 57.336487 107.385818 74.288002 143.487213 271.486786 46.550713 117.843109 74.379417 252.346451 102.357193 263.073975 65.892227 367.697968 117.467842 229.824432 113.353065 91.387329 127.824066 83.008553 107.179192 107.919540 242.157410 182.677979 62.730240 98.727806 186.819702 134.170563 158.209076 120.606888 156.684433 61.120888 
conv_97_param_0 160.162201 178.864761 162.845596 183.836090 324.354431 228.540848 158.533005 144.806564 181.735535 269.513214 97.875557 111.231560 164.719589 188.421066 228.879776 173.443558 203.158813 150.223343 259.979370 259.506073 292.737396 254.621552 279.232422 141.503616 259.494385 241.880463 221.656647 128.754974 221.648697 138.635178 286.907043 104.389992 223.555344 160.949814 139.698135 116.053207 123.542244 183.312119 229.562042 208.029938 174.577591 205.211456 163.242386 240.448196 223.215546 194.342087 195.383591 197.716721 319.492859 368.630829 154.150818 143.010391 186.981796 189.930618 181.715851 148.095001 103.614441 167.267349 181.189514 195.787109 164.033936 145.585480 266.940948 236.329514 
conv_98_param_0 176.575699 165.140320 134.764771 184.858566 212.150085 217.289886 220.607300 165.771835 212.670486 203.041367 204.317368 251.787033 202.409332 217.108521 195.855423 269.669250 174.210312 224.996536 235.380997 
conv_99_param_0 79.012512 87.593887 244.459320 42.503986 100.171570 155.196365 111.725464 123.219139 165.414871 92.254845 129.675110 93.181915 96.434792 59.679272 424.464661 107.586555 80.130447 113.749512 161.058228 242.317841 167.527863 156.712112 104.367943 153.363663 175.560379 302.537994 65.855469 99.658684 60.421463 35.311329 104.199371 131.575439 
conv_100_param_0 151.425415 124.000977 170.061157 132.064896 84.784210 122.329407 191.094070 144.704834 156.393127 82.429756 141.560654 145.799408 114.996513 149.824203 244.438385 95.906815 60.922672 307.856140 108.129219 61.696907 160.220352 137.297012 62.755047 134.999985 123.665634 242.331451 112.137466 115.605896 154.682968 90.096855 155.682327 139.873581 
conv_101_param_0 259.447388 335.391357 267.313477 182.267700 152.997650 216.746674 488.902252 242.626862 183.424545 129.918076 309.086151 120.414818 213.894730 281.794159 134.277756 131.295303 155.559814 305.815399 180.747742 173.744827 201.937881 260.356354 286.765167 182.012604 159.080124 188.066528 286.607178 195.120773 266.628387 205.284927 321.106171 170.108566 
conv_102_param_0 443.395020 72.832954 69.399910 241.450882 109.524803 50.229263 75.237434 86.708107 56.950130 108.042274 64.605850 127.821716 74.818977 145.554626 100.329193 40.825077 165.478271 56.432762 59.930199 86.549240 36.734432 88.127274 106.255188 100.149391 262.316895 245.298920 188.189438 65.392296 162.840790 300.701385 113.877251 231.553314 
conv_103_param_0 67.878639 129.656387 127.563644 104.235634 81.957886 230.611847 80.965012 103.732468 82.466942 61.356209 71.917999 124.002541 46.086449 103.153183 50.199982 58.648869 63.521255 61.695633 48.642445 65.498016 169.373215 65.018494 44.544746 73.568077 114.700890 115.138298 71.449944 67.840790 49.260986 136.760040 66.288261 83.536812 
conv_104_param_0 388.492920 382.213074 242.175049 306.716980 134.347107 240.162506 738.909119 303.318939 265.133545 227.954422 153.448975 160.355118 141.049896 224.220688 145.548965 185.782852 135.396149 303.850464 126.382896 238.620178 272.494507 191.528717 276.110413 248.420242 186.315186 210.945663 203.996857 226.367279 291.750977 347.489655 163.171890 129.401001 
conv_105_param_0 69.215126 378.487366 98.908493 359.465179 176.723633 508.509613 100.352760 210.892990 127.186432 179.511169 303.399872 205.558792 725.337402 108.497742 54.163818 88.386726 645.755310 438.160065 109.335587 77.382790 534.813904 93.757317 293.300873 233.736343 122.186661 47.484310 252.475037 177.193405 306.094086 54.160027 309.686249 184.636551 
conv_106_param_0 100.615562 67.893486 84.496086 68.960228 119.581779 262.486908 225.068558 102.246429 82.690117 79.929626 91.443245 142.491760 60.901108 190.421616 85.306396 88.368607 122.533775 65.927856 84.144112 614.735107 68.255028 86.680931 77.293442 109.001114 50.510712 76.405640 70.242455 73.638794 69.454643 85.639503 74.064613 90.142349 
conv_107_param_0 227.754822 293.065918 214.247116 250.092300 137.981964 247.239548 220.420334 265.810944 161.450027 292.736084 154.911255 459.127991 121.426704 171.115784 325.119995 500.666016 122.455742 277.435730 397.396484 332.816376 253.752197 343.587860 244.221603 268.140198 644.999390 307.988159 218.751892 262.325775 176.575699 320.710236 159.274948 213.193436 
conv_108_param_0 701.435303 622.664368 508.684174 517.137695 1037.380493 878.365906 782.647339 441.296478 279.781219 643.628784 409.588226 482.072937 513.573914 951.444092 409.443970 893.088806 520.234924 831.523926 372.514587 708.548157 418.264954 651.511963 467.837952 970.854370 512.297791 500.372864 525.830627 561.246521 356.347809 659.167603 641.931335 640.935364 694.953918 609.514954 670.012695 281.441040 658.067322 859.556396 510.993103 690.463013 501.700623 652.040833 885.617371 814.875000 536.437927 342.907318 634.386536 755.264465 370.439270 703.264587 556.809143 655.014893 727.290222 465.340240 742.034668 343.953400 242.437119 422.993591 586.233643 784.543152 423.261108 693.680725 780.939758 558.163147 
conv_109_param_0 1056.618774 725.298401 1321.233521 442.953400 1131.397217 1164.878540 1222.156128 637.680786 502.605530 687.428284 664.843689 1058.571899 796.059875 1169.344116 921.825745 455.794006 538.843079 1067.914795 382.654175 1372.909180 813.767700 777.707214 996.939148 1497.904419 1016.173889 895.297424 991.908142 493.508270 471.592163 1145.104614 731.628052 614.023193 623.319702 887.940002 916.483337 716.183472 205.029388 949.025879 708.051331 1026.347778 993.569580 908.232117 1123.725342 1020.671021 405.433868 824.976440 1323.531494 871.413025 609.122803 934.315063 694.145996 1206.395874 826.688354 288.881683 293.172760 1291.223511 680.437500 890.920715 802.256042 1181.199707 1052.239258 953.354858 417.757324 586.237183 
conv_110_param_0 149.225006 224.895248 101.156349 493.621399 154.414490 173.313644 215.985748 211.828491 163.535645 115.860039 164.101868 475.574890 152.545471 102.213486 363.751984 382.081360 252.082184 434.028381 387.791718 66.958054 150.559402 161.488419 138.576843 129.862671 378.426086 172.955551 95.847069 225.002869 105.459633 267.582855 329.315857 373.856964 156.566422 92.909897 131.966965 294.707611 196.064102 140.030304 192.323212 121.705818 143.056305 196.767136 422.123322 132.988663 149.965271 201.144348 169.652924 297.149689 229.275391 109.058395 174.069092 129.264542 123.527382 409.805267 469.165009 429.608704 173.910873 143.703140 188.636200 94.127571 166.331650 100.255180 170.999481 383.528961 
