conv_5_param_0 7.725434 7.264593 2.392386 7.617971 6.411541 15.407686 3.735181 6.714891 8.405177 12.840134 3.769006 3.997254 18.604519 3.343605 20.830252 9.325113 
conv_6_param_0 683.190735 666.765442 773.795776 340.207275 650.809937 310.317688 751.127136 226.989746 566.283386 525.922424 477.870270 816.808960 926.283264 368.842560 401.755371 1032.722534 865.603760 537.304565 356.553101 986.196533 491.268738 460.883820 357.735046 354.067841 499.757751 352.826660 703.168823 492.473145 285.203552 346.596191 289.734406 266.608398 
conv_7_param_0 226.784744 137.857269 265.860138 236.616180 111.479561 359.906494 582.925537 121.474442 284.847626 97.584969 354.783051 414.468964 475.451080 208.633331 249.051392 221.780243 100.740608 182.853012 416.046295 624.372070 786.654358 311.464233 341.108215 269.857849 273.442902 181.026108 186.002335 216.051834 436.614441 117.271088 360.353424 145.734894 
conv_8_param_0 206.579666 133.855530 206.170197 322.261230 156.095779 256.367035 177.723877 151.897995 
conv_9_param_0 3.994945 7.285203 6.584009 5.758699 6.086202 7.885321 4.459080 5.180143 6.460068 4.861008 6.986406 4.887406 4.866077 7.571341 5.104068 7.583665 
conv_10_param_0 285.296692 319.667389 300.998138 126.294319 244.072540 214.080460 164.940613 220.517639 184.431870 157.045639 223.302902 310.125092 271.665497 258.327271 235.354263 154.563431 127.836670 144.897614 269.987671 178.282288 185.476852 313.514557 238.000214 417.612640 166.387833 349.980652 195.598892 186.491302 270.814636 332.354187 204.686111 497.386414 254.929459 346.508759 177.828308 199.786606 168.183487 188.665207 224.579681 289.996674 351.095184 287.760010 167.483780 477.825531 298.568604 193.774551 346.263672 198.914413 317.011444 189.619476 158.946762 280.113708 565.293640 600.134521 125.248039 132.681381 296.986450 241.732040 274.382050 166.621185 135.173080 152.906204 201.996170 478.937927 
conv_11_param_0 1794.758057 1817.634888 743.614136 449.004791 1269.605225 654.254944 1681.883057 860.289612 1250.519897 765.919983 952.581299 1580.972900 424.455902 796.696045 1535.652710 1579.537109 1344.510498 488.802704 1654.650757 990.511536 1771.917358 718.210938 925.360107 1466.486206 1148.752563 1668.015259 1402.780762 1427.203125 2074.350586 861.480530 1109.397949 634.305298 1617.012817 724.398438 1720.972900 798.401855 1351.057739 1083.291260 1755.373047 850.896790 1022.786255 1051.229492 1088.008179 888.098816 1772.839355 1651.705078 1774.464111 516.657104 1949.577759 1039.228149 749.137695 785.568604 971.098083 1017.488831 711.640564 1224.926636 1625.020508 2171.428955 861.868530 1849.289185 1101.316895 2376.652588 615.891541 616.802429 
conv_12_param_0 234.731445 352.215729 198.734589 283.546692 404.274139 401.179718 265.210968 172.302505 295.677155 404.622681 238.819519 387.061737 328.311371 345.089111 179.753754 374.707489 319.928467 331.172394 215.518356 428.093140 295.852203 400.264282 350.746216 355.345856 311.344666 187.764252 237.806625 121.515747 176.328949 195.519592 243.062439 411.232239 328.263367 541.366150 317.382812 369.803467 330.015625 345.761108 165.962570 380.438782 529.276978 298.482910 584.888977 332.844238 463.822449 432.497101 522.740784 579.245117 509.877808 397.987366 314.940979 388.901703 351.839233 548.004578 521.053406 522.443787 304.242310 456.745667 427.573914 395.110077 392.238220 378.542755 676.776611 297.785217 
conv_13_param_0 127.171036 94.658546 126.995689 70.752571 92.822479 106.064568 111.098694 103.672318 78.317146 106.531944 48.023670 95.664024 65.958214 48.753426 155.977539 71.774696 
conv_14_param_0 124.165939 81.570045 94.411987 52.083729 89.770119 76.657959 83.783882 75.093697 65.280113 114.709831 124.224686 137.499374 88.290215 78.885918 87.679497 81.848969 59.025730 69.555237 123.909142 76.547630 66.678177 45.200279 97.516350 74.849884 148.395859 90.696480 68.928543 51.604439 95.861778 96.626366 52.988987 85.001205 
conv_15_param_0 386.457642 628.645813 365.751709 284.599091 174.253723 111.689117 398.458191 256.096771 230.497971 210.240280 190.968231 495.079529 150.473801 259.677765 276.644806 264.313141 364.886200 198.011261 189.492661 634.340942 236.475525 191.166946 253.174164 218.844040 566.193176 461.304413 381.183685 284.832794 355.952515 270.070648 369.420074 195.223022 238.418106 409.676208 217.461288 287.533875 288.936249 226.082077 208.144562 217.821686 529.524780 278.270935 227.757278 234.983231 251.274139 268.128113 237.148926 331.158997 297.173218 211.363297 194.455780 208.581436 226.446350 371.228851 249.904465 206.459396 249.636765 298.042633 299.083191 185.656082 181.471909 150.785522 309.855499 205.546417 171.239899 308.380463 299.533325 254.034225 257.940094 365.576080 216.864090 258.350098 231.756592 351.941467 224.758011 342.150421 288.050049 293.514038 311.493134 224.553406 317.236389 394.612823 309.310791 566.004761 279.845215 197.276947 285.782928 327.015778 357.626587 276.572693 223.522598 288.838013 419.980225 203.974106 624.111633 281.948700 336.752319 285.016541 443.225189 514.308899 208.065201 235.472946 350.133545 286.135712 260.550690 251.574799 318.308624 172.177917 305.116882 196.826218 139.395920 301.072906 471.620972 261.368591 305.788025 353.618073 456.148865 312.677216 282.776703 176.258698 428.045197 137.584366 262.021545 276.595215 267.275940 249.412521 224.279602 211.638046 
conv_16_param_0 730.609131 922.945007 565.276306 1011.943848 283.496246 698.891296 874.708984 817.708618 590.790344 220.101547 812.500305 749.475830 437.820282 902.916199 554.543030 1499.896851 1259.850220 667.124512 1288.931519 953.334412 770.306885 617.530090 614.041748 1182.611206 765.575439 500.623749 1013.263611 988.226685 411.665802 903.169128 1217.313232 431.332550 580.014282 308.986969 716.187622 475.545532 495.634094 947.914307 461.635071 476.717957 517.195740 746.994263 1023.709473 618.204834 624.030762 552.306702 408.143066 1178.739624 788.369507 509.493683 625.413574 779.809998 604.781982 421.809723 727.053101 626.964233 498.465149 1291.052124 861.007324 598.786499 525.819153 995.565918 563.721741 1305.051514 817.709229 552.753967 1124.330200 1003.702454 671.111267 1044.043945 1133.574097 934.240173 870.048706 1056.798096 651.494629 591.579895 574.350098 1006.384521 616.363953 358.358948 427.411713 774.002502 649.256775 939.117920 633.299438 591.012878 549.847107 918.878601 609.128296 493.832764 714.972046 1023.673218 756.132080 839.519714 408.195648 585.087585 537.971191 631.622131 571.080627 903.652344 555.055908 555.690002 519.767883 819.046509 834.274414 967.035583 1172.958618 285.175018 765.960510 1174.639160 265.407318 613.468323 517.914062 419.838013 605.508850 442.739594 881.760803 608.483215 722.761230 1168.626709 708.960632 426.445770 543.549072 1214.796631 1027.228760 549.342285 594.760925 659.236938 
conv_17_param_0 349.049774 441.959137 312.940063 352.727783 383.730774 268.453125 218.596207 258.705444 246.010315 297.600555 275.597534 225.634369 259.088867 273.018738 352.342041 244.030411 292.731018 321.858368 250.242569 192.224731 206.661148 416.679688 393.616730 262.424561 454.068390 244.603851 487.988190 289.662476 184.919067 166.646805 273.769257 257.783722 243.809647 270.719635 362.030640 300.921234 267.812775 249.207443 313.410400 339.584076 287.538788 506.927490 297.455505 427.549835 186.182922 366.238800 235.450134 277.845032 266.219055 253.521591 292.694336 379.803192 363.976776 285.433777 342.950714 246.491348 292.320068 258.333313 216.797989 243.887848 611.560303 258.891266 319.959747 261.955078 183.642395 253.618088 311.875244 517.077515 282.439636 486.953400 343.816376 251.191605 414.745605 482.207397 548.989990 212.641464 242.443115 219.432693 210.065903 247.420898 410.703156 451.855194 388.812286 225.903763 510.421295 384.267517 274.954437 509.090942 461.248627 236.304062 494.076111 405.502106 473.910675 490.088409 371.748932 226.950653 245.748764 283.999603 396.905396 360.257507 415.622925 416.047424 387.126740 350.218658 283.942017 292.823151 338.218170 223.048660 215.996231 461.848816 520.669128 389.088226 332.486206 535.079407 244.483444 223.912933 360.681915 178.001907 384.735413 369.078369 645.463074 251.150040 514.936768 345.691528 201.476212 624.259705 210.434814 433.759369 
conv_18_param_0 415.024658 526.232605 338.338959 627.908630 340.818268 347.116821 410.998840 602.686279 374.655884 427.259369 447.418915 500.433899 752.318909 359.603210 497.031097 293.938385 448.723328 378.273529 405.508179 479.735291 190.535400 369.432068 382.763947 472.772278 353.408539 229.173691 302.911346 305.925385 241.760147 442.029175 367.255463 223.598038 
conv_19_param_0 72.504639 75.487091 80.797646 87.484238 46.623455 66.108765 57.860886 122.905663 50.081875 59.335155 44.198654 87.623665 81.289055 61.591251 72.385338 73.394012 35.510696 115.529587 60.493950 52.901119 43.943359 88.324730 92.786598 100.724487 70.195946 55.606522 84.422226 47.263855 66.199860 83.223839 66.993408 61.506664 
conv_20_param_0 101.956055 108.921730 79.970329 67.289711 96.623299 124.769608 85.297997 91.310623 117.103867 114.808311 133.749741 49.033844 87.900711 105.274673 211.204102 123.003128 74.726250 66.581818 70.724457 115.295425 136.392609 120.891251 117.238953 104.402458 119.798805 99.110794 116.626038 79.470131 104.351044 49.348835 148.008423 108.534004 
conv_21_param_0 125.650215 114.349419 115.707085 122.824043 130.889114 107.299965 154.344986 184.972015 74.447372 106.570099 136.073990 106.317383 142.557678 143.296982 137.402023 92.403374 75.818466 190.321304 146.102875 60.105953 119.770294 314.260956 114.322624 80.852158 68.681900 119.712013 71.072868 135.300140 175.642868 148.246704 100.193634 124.639862 
conv_22_param_0 73.660576 97.165298 99.133263 38.916000 96.628578 108.195541 80.426361 96.853806 61.223961 98.288879 125.832428 105.165329 93.455032 142.832184 114.683853 86.278252 58.708164 105.453842 123.717361 99.072495 112.960953 144.708603 100.033791 116.856026 85.951080 85.210861 97.015144 68.072060 113.885216 74.038414 87.175163 115.747231 
conv_23_param_0 216.004211 190.265976 224.516205 242.803009 181.949570 150.871964 216.998993 179.683319 206.947052 233.561508 180.401733 189.133545 176.117584 216.002884 272.913727 254.144974 139.220963 175.755280 226.316132 262.302032 185.030914 300.051392 274.391357 271.835907 205.724075 314.429779 169.467697 174.003113 142.406357 192.862167 125.407639 121.742676 
conv_24_param_0 430.989624 250.081940 360.909729 278.667969 389.348572 488.928894 365.428497 410.586670 547.731140 459.461273 240.203018 355.987793 404.016174 476.782715 283.437836 507.790009 553.494202 145.966400 326.412720 479.613098 455.382843 407.627228 499.842529 417.414764 474.727875 421.683014 282.722565 315.840240 393.183685 314.079010 276.633698 371.548462 437.433777 530.696045 478.312195 583.553955 345.803345 403.125671 326.657501 368.398041 479.830139 393.930786 480.259583 332.011536 363.053650 326.644928 397.928253 339.554199 212.556900 509.606537 265.789978 454.940613 327.187531 349.142700 316.035065 363.164764 444.533142 471.610962 359.613617 263.529999 434.485901 483.830414 473.004333 429.577881 
conv_25_param_0 317.972534 624.018005 409.820801 279.600006 178.633057 270.831909 255.231812 297.916718 369.166168 364.598816 324.282471 381.247589 281.731506 560.212585 618.038086 358.656891 612.543640 569.255859 134.040222 333.899597 293.364349 397.987000 244.060303 370.208496 374.464111 396.490784 415.447418 427.546387 438.331177 457.004059 238.666824 486.844574 414.950165 653.925903 658.463379 140.391556 435.628754 271.145050 487.578644 712.981750 495.733276 286.465668 547.810364 720.063477 208.752533 499.212799 404.218872 306.598755 345.471802 377.337402 536.326904 382.840149 218.202057 373.968567 357.644836 630.285645 150.706863 345.168518 647.059509 405.863464 609.181091 391.476318 223.887939 420.330627 555.893372 177.918686 234.269974 366.964722 418.754822 339.383636 460.642822 628.116028 337.695587 429.318512 330.125610 425.098816 303.908997 536.297302 429.464264 540.817383 421.188782 327.001709 432.195312 404.779297 371.644562 470.587372 750.453308 596.522339 352.947174 264.381683 624.244019 411.082306 381.351074 362.436737 448.541077 522.482117 222.903046 359.706818 242.039780 479.837341 194.321259 351.831726 188.237900 377.943115 349.027557 384.616577 391.178772 341.022797 476.713654 330.783112 364.187225 387.474762 319.593811 391.307892 422.912811 355.535065 377.292297 365.934631 477.034149 429.865784 511.203888 274.424438 454.277130 505.129913 663.465454 557.615967 372.690582 357.111145 
conv_26_param_0 956.401489 803.594299 434.941589 1092.903198 1248.813110 2019.100830 611.379578 526.277039 933.587708 1041.327515 1464.436890 1066.278687 1031.853638 1012.599060 963.280762 989.083862 1420.536865 721.019836 1074.250366 770.622253 531.403748 1341.847168 879.540955 354.702759 933.701538 1485.552124 1237.800293 969.058289 632.039307 838.150085 690.483887 868.142151 572.450378 957.234619 1119.940796 754.666992 570.376648 631.380066 672.583679 494.885468 709.083130 961.792908 857.763184 661.286377 1067.889526 955.345886 855.661987 1273.337769 1057.120728 643.861023 615.336304 719.547974 1129.167114 869.728882 1173.863892 834.406799 902.466492 596.643860 951.049316 1918.203369 874.004089 557.435364 911.226929 1218.207275 1484.252075 1724.626709 850.693115 555.220032 1027.505249 655.793701 1363.496338 887.651428 971.316345 927.734192 567.805786 870.177307 1062.498047 1096.723389 803.820251 459.203613 422.805908 1795.084473 1074.834229 648.147339 1175.957886 618.643127 744.770996 721.743286 889.511292 896.604248 1106.288574 1015.368652 1260.636597 1019.506042 1292.599121 1208.466797 1545.065430 1075.543213 1010.232788 1355.569458 782.350037 775.288818 962.388123 1160.757324 863.425232 1271.326660 1281.845703 1796.184570 1378.552246 1749.363037 1301.483032 875.621399 1029.973755 1630.941162 1047.239990 924.990051 1627.393921 1046.577881 1001.278259 1010.650391 449.018738 512.474915 805.278137 849.073303 1526.482178 1323.589233 828.775269 1018.101624 1030.838257 716.547058 1201.010986 1542.890015 1355.907104 884.258301 819.318115 749.937378 750.000854 1092.779785 1462.260986 1021.470093 849.244141 1035.197266 905.075256 1473.307373 888.741028 774.575745 2025.387329 1811.802612 942.496887 1395.377563 1093.682861 887.949524 888.622620 630.416443 982.613953 1705.158691 858.309509 898.301880 897.912109 961.897644 625.808289 764.797729 1187.849609 856.265320 626.534424 779.229858 1170.308716 947.087158 798.239502 934.512146 1170.638550 1490.027954 529.789490 1417.322632 899.682434 767.416260 928.753235 747.125732 659.612976 1475.007935 892.691772 839.589600 1094.396240 1589.158813 660.102112 1139.629395 1082.326782 1516.062500 910.613159 718.080933 933.868835 1451.340454 498.301575 783.846436 922.903442 1014.207947 702.079956 818.214233 755.409424 754.885132 879.968201 767.361267 1672.798340 583.029480 1925.668701 759.558411 744.252319 1530.227173 1083.269531 911.483521 1131.003784 1168.825562 891.452271 1308.821045 1096.291626 1254.012085 937.250916 868.651428 634.367920 668.877319 1059.203979 793.408691 938.350647 824.220642 766.477478 1338.094482 1774.693970 850.172546 902.714539 675.601807 1014.018860 668.913147 909.924866 1141.038696 530.199036 1076.783203 1038.330444 1356.058594 959.505493 869.512390 316.834320 1240.082764 950.719604 327.158569 1172.485840 596.766113 656.796326 498.456207 1122.517822 785.062927 457.593506 1064.322510 1039.760010 1075.519287 1613.949463 934.512878 
conv_27_param_0 415.894806 284.569885 403.864990 316.403351 374.488770 447.719971 426.350494 431.044861 463.664551 404.896362 275.892548 308.510315 476.183197 400.816132 290.023956 705.379517 435.659760 413.783569 384.008392 464.051453 338.522614 342.754700 447.625946 262.582458 226.730164 379.565247 351.459991 444.644440 481.917175 323.567688 567.253296 346.492126 311.573639 337.139587 360.815338 345.803040 458.653534 365.171021 322.169434 259.862976 393.172913 544.585266 291.467133 387.044952 381.347534 303.248138 298.244537 377.170227 449.517548 416.083710 324.497406 534.120544 335.116669 548.914612 292.188660 241.889374 368.944427 344.289368 402.717651 360.638885 769.574646 519.026184 430.408875 331.906097 312.895050 384.602203 451.227356 362.490479 514.982178 494.055817 424.607208 408.209381 284.211639 339.990204 515.002014 364.661438 411.118652 435.444031 400.886597 480.783661 360.209778 397.508057 356.210022 300.821503 322.589722 405.391052 316.583710 412.384460 404.626343 328.647400 307.826935 403.424194 256.538605 420.165344 328.812927 510.318512 435.772614 346.807251 441.251312 413.941772 364.526886 353.187073 438.627167 369.526093 362.854675 395.533600 481.696442 337.072083 373.763885 384.683838 366.407867 267.844482 306.152710 266.569641 278.388580 346.414673 370.078735 374.864105 308.673615 301.106415 363.807068 449.796021 394.480988 246.630157 385.522614 339.927246 547.689758 458.421295 159.053101 445.252686 236.006805 347.105133 327.456116 533.694946 323.318665 531.952637 406.170227 553.498657 316.914490 762.447021 318.415405 289.575378 333.334869 277.048737 648.936523 255.591751 547.955994 564.246277 449.275696 305.861816 268.555298 594.187439 235.647568 572.773071 322.077179 627.077759 388.262085 339.332886 618.547852 353.654572 263.817139 325.994843 553.536377 343.916229 339.807037 352.283875 642.799377 375.689362 388.957275 644.601746 433.095795 283.264954 447.910492 519.652588 279.681702 502.910126 344.729340 385.828522 479.001129 391.142181 326.525452 374.329193 521.917236 367.342041 448.988983 423.945374 262.207581 427.849335 441.190979 414.259216 496.426483 343.332642 523.941284 398.477539 356.325867 398.727081 508.402191 130.737686 394.432434 741.124268 445.257141 328.630981 339.843933 372.172791 730.876648 291.734436 434.153015 136.177719 277.115692 410.939911 344.618286 462.763763 328.257324 594.215637 149.684921 437.509888 403.542358 381.016724 411.720001 335.025940 704.941223 332.574249 441.554230 428.153900 437.864014 537.889282 453.030609 542.646057 287.673004 283.708832 282.792633 287.835083 185.979248 384.562897 482.285004 429.355835 433.671387 287.324890 298.434570 407.013672 472.940643 397.513550 282.758453 350.324463 257.742950 310.366974 659.253723 346.430176 477.853821 336.103302 399.788483 428.426514 286.901978 581.548828 363.080902 478.103333 
conv_28_param_0 324.575470 589.633850 486.616638 662.367310 486.994446 278.295807 422.571960 646.241028 700.692139 198.206558 674.336670 482.076355 209.555893 532.695740 681.968018 503.385773 861.632812 587.353760 621.514343 156.984283 555.850586 254.345642 412.068420 509.751648 567.522827 192.458389 492.225281 679.145630 284.815735 225.851700 474.559601 401.414337 170.721954 544.649658 399.137878 619.491333 394.941498 365.181244 251.935028 442.528564 509.501556 510.010864 1241.745361 594.910828 374.681122 623.431946 477.007660 597.576050 398.739807 395.547882 368.839996 475.980743 460.861298 447.205383 921.754456 615.523743 698.442200 565.677124 467.876892 430.216553 352.287842 596.363525 358.420624 459.772705 
conv_29_param_0 50.503033 158.182556 45.654167 67.095665 73.578903 77.076195 140.131027 88.200890 75.029816 79.821106 108.095474 111.471313 88.216278 65.325455 56.936813 95.605515 78.161697 115.079300 124.528206 110.063560 71.557922 55.321373 117.235825 81.509865 91.055786 76.994652 31.160870 45.527798 87.199570 93.967834 44.936291 46.405746 45.434658 41.199909 68.799896 82.633362 112.842125 60.345482 101.300514 69.180786 115.275558 44.793789 67.658035 70.982353 80.769646 69.166161 51.820992 67.910194 90.439560 125.865852 86.381348 96.722183 69.512703 89.507423 58.592361 116.587372 31.366091 65.521828 77.216011 71.150368 64.473587 78.537956 89.664879 93.568245 
conv_30_param_0 131.859024 168.180206 121.407867 269.350250 227.296768 183.644150 122.114410 290.004974 186.790100 169.292343 249.326660 108.680229 155.269638 256.201050 78.657051 175.608917 184.598114 156.298615 256.172760 61.828964 48.614658 328.092529 227.739670 326.349976 118.735382 132.732834 67.907829 183.961090 102.764915 222.525925 99.595161 142.931137 183.540756 112.806892 168.443375 180.159927 163.143448 182.492493 236.829590 167.210602 133.209152 168.335480 139.936127 212.242554 155.754456 85.654884 228.981873 235.331009 171.025620 135.614914 183.201141 135.732208 188.700546 170.366196 96.019424 104.398270 87.124138 289.259705 189.316269 169.189133 125.531975 279.896576 132.279892 161.916977 
conv_31_param_0 247.243408 139.288925 138.910721 169.624283 230.225739 209.739868 187.623550 145.977554 295.611725 134.919373 217.233170 127.324135 168.073395 122.621223 144.874771 220.324997 164.451324 170.663940 255.063568 126.377251 317.923737 291.740021 222.690323 158.086609 169.779068 208.364426 134.320969 184.622040 158.401627 171.059158 193.977127 48.309929 171.205124 176.464752 240.057800 168.530991 141.773361 264.656891 201.134888 174.135391 206.184052 179.176926 318.963135 146.880981 220.031479 183.767883 205.210419 130.787827 191.787445 216.219864 200.801086 157.002823 167.314880 168.929977 192.533447 349.148743 217.016327 102.754929 252.526077 225.451553 242.810913 298.740143 215.687622 141.635849 
conv_32_param_0 202.761032 142.412994 156.520691 271.326630 181.140045 250.927704 166.237061 137.762146 266.119507 265.703644 308.805817 242.114548 127.382118 190.742035 295.092194 126.338493 241.499481 282.353912 170.221344 200.570572 150.701370 243.175797 141.930862 253.978317 157.457733 141.540131 77.914734 91.740974 182.662460 104.488548 112.830177 188.273285 113.967476 85.261078 147.983109 196.876282 241.735336 137.954102 206.780167 148.408981 185.443237 194.346756 58.919147 64.508362 117.717712 186.946442 110.354218 229.368591 177.131226 119.199242 116.688629 201.711823 218.466187 138.760574 152.385712 108.994835 200.959488 64.010284 172.918518 112.074928 149.445984 105.215866 149.888077 219.696594 
conv_33_param_0 183.990875 201.746170 309.262787 222.116379 197.468903 271.854462 270.730530 143.413498 184.046356 219.370316 261.398193 257.063202 168.908554 273.004913 176.744659 168.961456 231.966141 187.714600 145.284760 231.145782 229.819275 217.355148 196.461349 204.785950 237.079605 264.755981 250.916824 213.853180 284.888794 222.534546 283.399200 261.807556 233.852844 275.540527 202.211975 302.592316 186.108566 255.503754 211.666611 172.867569 206.310150 310.411896 216.912552 198.619263 237.542557 220.871933 277.741852 195.553726 262.082550 238.682114 255.284103 188.928268 173.034225 203.835144 146.758759 252.920517 160.879410 250.453384 231.520035 274.531830 171.455795 164.433228 227.800232 183.277664 
conv_34_param_0 718.000732 847.138428 809.166016 412.875793 656.821716 856.590454 700.974243 610.710022 701.230652 772.618835 662.870239 568.920593 387.603241 660.575134 727.148254 823.542114 779.643799 1197.774658 803.051758 593.624023 684.255127 939.758057 859.504150 598.066284 569.507324 406.287659 843.625183 1003.062866 618.820068 762.398438 959.123596 840.223938 673.013062 862.816284 813.945679 333.319641 953.982239 653.170776 1157.385376 478.436554 599.797302 605.365601 624.638550 266.538055 762.960632 635.978210 242.658981 680.534485 920.855164 638.821045 609.819702 756.660583 640.559937 1076.902832 644.525146 624.005188 705.197083 838.843140 743.049988 867.270020 291.863647 521.802063 504.243805 1040.640503 426.242981 691.582458 728.228210 820.398987 665.214722 563.505493 369.859070 832.165405 1593.218018 704.785034 617.257812 872.194153 735.454529 263.216461 1214.749878 829.343201 797.061523 886.247681 675.721069 615.142883 819.787842 582.032898 580.374390 1096.539185 960.626648 946.661072 1020.103638 735.347534 983.441284 668.940979 682.156128 709.398010 753.111206 867.125977 736.352783 799.916565 641.329224 1186.920166 868.583069 774.559570 582.341431 866.177856 524.396301 811.580566 589.598999 543.574951 466.434509 607.057739 807.366760 589.310242 626.470459 1140.484985 762.579956 758.874878 913.286865 711.603210 563.508240 616.238403 684.628418 734.276001 653.332886 515.827087 606.870422 944.061096 
conv_35_param_0 431.315002 1009.109375 674.985962 655.443176 652.374512 414.198853 673.460754 344.594971 629.378235 573.132996 1060.921509 366.075226 1088.780762 505.190460 403.218658 630.064514 683.425659 663.544556 450.862640 699.755981 591.473450 648.854614 613.065308 683.659180 622.744751 806.780273 507.947693 674.055420 1413.180054 282.806763 576.551514 725.367249 546.349548 407.108643 515.655151 617.767273 829.216675 392.088776 431.968903 715.880310 652.775452 734.169312 593.897644 503.459839 435.149261 203.996048 551.489868 1235.619385 687.140869 678.744995 458.572601 781.290588 512.651794 615.098877 408.138550 495.608429 329.657562 691.305115 307.138519 1061.739136 520.254639 591.232849 333.147583 971.954773 637.848022 436.869812 846.688599 687.313171 568.057190 713.875122 762.203796 744.695801 563.197937 827.964417 740.652405 552.473694 793.018616 1173.463135 528.667419 479.013123 618.309448 391.639740 871.000549 686.331177 655.942505 423.331268 902.437805 508.627838 999.124512 565.945190 654.886414 330.441742 647.115967 522.505920 594.152954 323.420013 893.157837 691.683655 952.082214 906.111755 647.456360 699.525879 443.805359 848.444946 696.458069 702.598328 382.568848 849.217834 510.270477 540.543884 673.901062 548.348633 636.656433 659.492615 600.907166 632.319031 474.375702 1024.445190 995.920593 610.510193 801.491272 928.323792 358.139008 507.000824 415.474731 638.490784 508.540161 674.047546 504.698090 569.764404 451.904449 810.947693 428.279602 626.464966 577.646729 643.753723 489.252686 859.970032 1415.903198 527.214172 524.537170 627.496521 197.538712 597.107117 601.757996 705.646667 537.792419 414.540253 648.229370 347.395447 527.986206 748.993713 861.698242 558.468445 740.680054 932.512512 659.323547 371.898376 589.571289 456.856323 471.872528 1157.805176 723.867004 778.963684 560.625610 660.988831 1023.241943 470.992432 327.431732 803.509216 536.233826 562.832336 664.246216 477.808746 855.089844 559.926147 1687.873901 751.182800 619.969543 712.424988 504.158264 215.127975 1092.883789 557.342590 757.354187 746.424866 422.415985 582.260315 1043.873779 616.211914 704.266174 1019.675781 1032.391968 855.003113 284.077667 343.219086 681.185791 716.967834 693.801331 519.507812 1151.134399 597.684753 572.112427 631.323669 444.979858 651.547180 371.835876 941.983948 898.712402 646.962708 549.264221 1215.234863 1074.296143 465.733032 295.364624 687.640808 859.267822 672.391663 685.195679 639.406494 483.459198 521.469604 1215.007202 1162.304077 600.695435 427.469696 634.263306 635.299805 661.623352 594.583801 675.890381 910.656860 518.546082 579.790222 460.025574 553.787170 402.019867 568.499329 710.088379 586.254456 806.017578 408.935089 526.138428 513.382507 605.493286 528.255981 941.777527 487.177338 947.071472 1056.256714 347.054382 587.062744 1032.845825 564.577698 643.776855 1167.067871 
conv_36_param_0 256.412506 235.856079 326.515320 342.132538 194.528824 237.822464 308.210999 258.599670 312.151367 290.569183 346.638214 302.180573 269.969482 400.590240 303.902405 290.316101 280.901794 338.571655 97.564720 310.286743 277.296539 362.778046 263.326355 368.600220 312.479279 276.990387 151.820618 381.543060 388.797424 289.529175 252.073044 340.745697 329.301117 315.962860 266.382263 399.120087 242.683929 391.440735 404.481415 266.207703 424.991272 369.760590 424.383789 269.368042 415.290741 316.457092 381.563599 314.038666 398.214935 321.757477 422.769348 214.025772 361.170807 389.169250 216.544235 393.667419 288.659241 98.760979 314.952667 332.234467 274.232880 401.290680 380.503021 288.827423 279.394379 399.104248 203.885483 292.320587 379.813080 424.243927 380.362732 316.439911 439.176178 280.029846 340.492371 400.257324 316.523560 340.274139 343.817383 386.301147 325.691498 222.266632 339.595428 232.586639 369.711090 341.588440 233.392548 364.929565 237.712570 321.245789 369.665955 383.017914 395.656677 304.308350 354.479340 375.929016 391.006989 342.330505 86.863632 291.606171 269.023987 353.747559 290.974640 331.235016 412.707306 396.981934 302.574677 317.265869 339.131073 380.557343 415.930359 109.199974 301.754608 390.358978 345.986877 257.035309 439.570740 346.182190 394.004395 367.713623 247.402023 355.751923 306.480377 155.279236 388.937378 391.441681 331.351898 278.516022 
conv_37_param_0 866.868652 1379.084717 742.936096 1033.259033 1433.777344 780.164429 820.445374 1028.163940 1020.790283 1405.939575 1389.246094 1175.367432 1318.744141 929.652100 779.062195 754.071228 1136.632690 1455.150024 1094.441284 1036.662109 1360.123657 1258.197144 748.114319 1384.329224 1451.271606 1159.753540 1679.880371 1978.007690 2291.283936 732.251160 1004.093018 1868.036621 538.612305 1068.018066 896.779236 884.897400 1079.438110 1166.175537 1257.592529 1471.940674 827.745117 1358.427368 1067.644897 1206.080933 1378.764771 1114.106812 550.384644 2103.562988 908.327881 1238.809082 2152.761719 745.607544 948.095154 1017.676453 1200.226440 1017.628418 366.422302 1761.599731 623.570435 2255.103760 984.476379 990.014221 1009.664185 1244.051636 2031.931396 1494.164429 892.140381 832.660767 1144.826294 1125.911743 2165.363037 856.180176 892.196899 1112.578003 1739.351685 945.156250 1716.303833 1019.094666 2156.973877 1187.114746 974.847168 896.542480 750.460754 2162.355957 4358.980957 1154.339111 885.398987 782.339050 1828.695190 1067.144653 969.149597 636.740234 1244.679565 1454.669922 807.790039 226.999222 769.078430 1513.451660 2714.042236 1033.508789 889.418213 1264.963745 1418.427612 1065.162720 2138.703369 807.794067 1690.161255 862.826111 915.856567 981.176941 1195.856201 1281.877441 1330.969238 482.523041 898.604065 1531.020020 1635.886963 706.591919 1462.045410 1494.107178 1993.460205 1336.095703 1406.765259 607.882874 1337.214111 940.686279 1327.271606 1704.827881 734.535339 1470.829224 913.353699 1067.408081 747.930054 1208.697266 799.852051 1042.950195 1081.737915 1671.359863 1675.929688 817.962952 894.470154 1121.510132 995.205627 869.535278 1335.195068 1051.398804 1424.772095 1006.085693 1137.851074 729.993042 1590.923584 974.641724 481.363922 853.526245 1203.752930 1934.391602 822.857727 1298.116455 756.846069 877.662109 905.729370 974.786560 1134.197021 594.873352 1377.836670 1679.372192 1779.063477 811.773193 1085.310913 1909.660156 1122.173218 774.815674 685.140991 964.096375 1444.181641 1499.151978 1002.210571 1440.406860 1725.946655 1130.330811 731.502441 959.222961 711.206360 1247.133911 1551.109619 1367.692627 1147.960938 1100.183716 864.145752 1315.872803 1170.566040 1094.358521 1020.533630 251.869293 1124.633057 1182.746216 1837.413086 1093.801880 1459.427490 1004.555298 1166.498779 1088.580688 1077.454590 1981.377930 1246.596436 1586.121704 934.406555 1648.919434 1175.372681 829.431702 1005.466370 1788.253052 1868.856323 783.434998 759.628967 2498.165527 1005.003479 1856.088257 1363.718628 777.710571 937.271973 896.912659 1404.231812 897.510254 942.870056 1274.533325 1048.456177 879.102844 2036.861938 1565.580811 1387.051636 1324.654663 815.186218 585.688049 1014.572449 1069.390503 606.720703 970.268616 1300.228760 1613.291504 980.440247 1241.802612 1268.212402 848.215454 1049.084839 1978.084351 2097.324707 897.274963 934.066956 1485.392822 2136.174561 1623.014648 2199.382812 522.152222 942.048157 1251.071777 
conv_38_param_0 374.562134 325.283936 431.962616 339.977234 346.352966 339.363281 367.089264 279.378479 403.136871 210.260696 359.309753 369.962830 360.254730 291.071411 269.160370 253.689590 314.043457 362.502167 275.414642 378.068634 304.684753 356.737610 343.405396 438.314056 205.199356 281.575012 341.343872 317.477600 292.308990 357.758148 236.595840 298.436920 299.673889 318.207886 219.384872 300.764709 239.309204 310.430450 399.333221 263.211121 339.938904 347.902161 263.210724 314.516174 250.811646 423.782379 338.689148 334.660767 260.378693 321.575378 251.701843 332.756805 290.106049 299.411682 275.098145 433.167572 237.581711 194.835144 199.887955 254.336639 337.568237 322.136078 258.803558 375.868866 331.218658 352.145752 398.140900 345.418610 272.715485 305.712036 309.254547 244.815109 256.494171 372.204041 341.326721 278.548706 279.282410 343.957825 168.300293 302.117035 320.852814 290.655579 370.479614 295.363007 300.594238 353.230225 275.601685 296.910736 343.765900 289.140900 319.544678 375.822449 389.072083 268.229919 321.210571 267.003815 359.621887 327.946991 343.453552 305.898163 388.676178 293.269165 334.378510 359.689606 378.554565 334.119812 284.652557 305.301666 305.570801 298.678802 357.180969 309.406769 297.434418 362.413635 322.624176 275.645325 299.061768 210.642426 374.385895 320.757538 299.283173 254.928146 334.026459 274.786163 375.502228 345.887695 275.019135 382.818848 488.194061 564.958313 519.109497 711.560364 516.278320 453.675354 385.162354 758.596130 396.031830 540.162354 510.889832 299.905945 309.028290 539.307861 454.475769 550.595764 382.039459 551.395142 574.060303 139.936096 321.350220 582.390259 276.046326 444.148712 316.250183 601.964783 277.340546 281.710754 362.404541 222.112946 471.461090 526.748047 355.560547 511.494263 447.050964 482.392059 569.367676 288.682007 737.030396 396.407593 484.561981 657.104065 285.024689 345.900787 212.226868 458.295959 502.517639 274.948669 346.678101 493.199493 487.853973 479.036713 380.578186 498.897095 556.399109 408.984985 576.813538 602.214966 768.551453 249.137100 387.965759 393.761810 506.883148 293.467834 641.285461 518.817871 305.583893 455.848999 393.675171 381.391846 472.796295 322.945709 366.700867 233.555725 285.433014 419.479584 822.918945 297.684479 523.991760 362.650604 429.331116 128.929367 321.492371 263.864105 462.506317 742.703979 750.825256 386.583923 586.854919 417.630859 356.000183 327.494659 74.839363 314.180969 308.406036 634.205017 339.124207 355.880096 542.848450 311.335999 640.712280 458.717621 105.997467 256.685211 950.821106 835.187073 372.199860 500.231354 322.345612 350.125702 308.556702 464.266266 398.481750 768.791260 482.256134 249.461578 337.174133 314.271820 377.167084 637.199402 392.474884 501.022736 412.619904 305.861572 496.828339 311.059326 325.783203 685.780273 
conv_39_param_0 394.156525 542.820251 293.456726 231.552414 369.179474 432.942383 281.579071 461.273346 425.791168 2054.542725 286.713196 298.573212 314.587433 360.378754 417.986877 407.371857 296.764771 570.606018 362.146637 341.147095 413.255493 378.196381 306.292328 518.587769 418.693024 364.522644 299.879913 401.857819 422.818481 537.202881 364.062225 354.241394 395.290771 277.802277 350.587677 221.057236 449.706390 465.293701 182.816528 378.385925 371.153412 224.738251 380.332214 269.746643 212.636139 373.082520 353.640320 339.214447 308.237732 493.390167 343.423187 505.192444 449.970367 278.037109 279.225464 332.979004 391.123016 395.456818 260.502960 479.774506 388.005035 221.174606 300.027313 289.213470 768.385254 789.608093 392.787323 469.737793 302.550476 418.143677 379.812378 262.802673 196.195129 251.212158 244.386673 419.478180 454.686798 309.963013 269.364990 321.964722 292.111481 499.110962 277.276154 349.449768 258.897278 375.895142 465.542633 349.222931 222.241180 202.776474 260.017181 478.571686 536.581116 287.010681 307.053650 388.914093 270.204163 401.860504 418.627289 266.015167 265.306335 341.310944 1118.630005 290.712677 182.921951 272.272003 357.771332 533.132263 318.033630 486.940369 230.288803 434.255981 268.371185 320.782623 300.302368 232.068542 393.709503 422.662842 258.680725 213.939651 456.442688 335.609314 270.741913 249.308243 175.000443 262.694489 345.457886 311.409637 640.209290 879.279358 320.916718 532.180298 485.988251 495.893280 247.214294 514.818298 621.532410 405.847351 475.902985 383.286591 375.278839 534.190369 380.635864 459.726227 444.245026 1273.995972 528.067322 410.174438 462.676483 608.283569 350.714874 592.362305 537.766479 465.935944 455.744873 624.610229 778.455566 650.468811 440.508606 477.412842 384.003601 229.865097 400.431915 325.423401 430.675140 511.850739 213.682114 428.366058 639.687744 350.365601 351.680115 320.317902 361.702484 272.115509 364.720337 415.624847 204.091904 197.332199 451.526947 358.631866 234.967804 540.107605 292.812134 344.531952 327.443787 349.183472 319.989655 253.419662 450.872833 387.386383 324.046814 410.788727 933.866943 917.874146 721.253113 351.642975 230.361511 258.051147 235.272980 333.716614 1026.537109 242.110840 265.618958 203.784622 276.076263 256.096771 339.450500 203.495346 239.438766 266.981476 268.338104 1052.513672 280.769806 221.872040 275.727325 237.359894 332.481567 401.666809 185.518814 328.832642 1184.709473 258.939850 185.008774 428.215515 1009.108276 816.145752 214.021133 225.545212 473.477966 261.302368 237.891403 251.017303 1128.472534 293.365692 289.911346 257.391632 1025.809814 243.395874 314.758240 158.316696 261.207581 271.889893 213.448914 245.902908 456.869904 258.410583 494.493195 253.218994 287.020081 307.751556 197.395279 204.235535 883.617126 256.281036 396.520111 718.221863 
convdw_243_param_0 64.837837 107.331139 99.179031 103.267715 130.326416 102.242653 105.880135 170.519684 244.657318 173.890366 138.769547 210.499725 120.589172 141.532104 111.392967 165.945404 207.853012 147.967346 167.407333 106.824936 156.839279 133.274658 106.934700 122.492706 202.557785 294.311951 147.615265 157.594315 109.561028 180.656723 136.537827 285.481750 130.581848 113.002129 161.082657 292.362488 382.959045 131.610107 47.729412 124.213875 339.321350 144.297592 146.017044 66.028328 174.840485 139.367645 153.668350 124.124092 322.005920 176.215744 129.104874 240.956238 134.898163 116.260460 158.786606 234.402283 121.922562 161.282867 232.913681 187.534805 294.509735 197.302170 1186.506348 490.852295 102.209145 48.273876 117.134689 954.340393 292.320221 376.385406 575.774414 1001.806763 49.408432 464.466522 894.104004 415.983215 306.199860 308.339111 333.104095 331.649719 355.507782 322.654633 546.794067 46.015961 435.917084 172.635056 522.704041 273.880096 537.698669 139.667435 246.201736 205.091919 49.843201 318.054291 582.226135 318.590973 56.148270 72.203552 308.750885 507.376343 141.318649 303.477997 227.333405 771.210571 49.145561 400.736023 599.325317 518.786316 62.549759 339.530792 474.919983 259.602814 236.767227 267.859406 335.206238 883.524597 184.480011 349.453247 160.471375 325.979187 268.234192 367.306213 851.743164 513.094849 61.084015 684.363586 262.817413 99.220200 
conv_40_param_0 839.530334 935.115051 906.887756 1084.855713 1309.763672 926.816223 1159.601196 948.868591 971.577515 1021.443481 1081.346313 1066.296753 1332.689209 936.049377 840.672363 478.744904 1109.381836 747.368896 722.241089 460.124878 795.262207 1188.840332 1065.022583 1485.879395 783.067993 857.275024 1190.486084 756.046448 952.326172 1028.619263 1129.786377 1022.821350 1258.713867 901.725342 883.850098 815.102478 879.994568 956.990662 967.354858 1239.720703 837.991272 1161.345703 815.978088 1003.830322 983.537964 1079.186279 891.152710 1104.872070 875.230530 952.827209 754.481689 883.434570 929.453125 1175.737549 986.337952 1019.674194 1130.551514 1102.049194 965.668152 1041.827393 1054.563599 771.278992 1316.410767 1091.603271 1218.807983 1041.358765 787.719360 1112.382202 1176.381104 920.429993 950.874573 1120.461426 1059.014893 1073.398315 974.954041 698.472473 673.563904 977.579163 939.940063 696.333130 1067.439087 410.203888 1019.329712 874.914001 960.322510 818.878174 1232.274414 1047.872803 1207.927246 968.199341 1088.052612 861.943115 168.259933 680.368347 695.053406 1131.882812 1101.398560 1401.105103 1102.513672 835.183838 951.202148 1270.224365 205.124451 673.903625 938.833252 840.207336 731.290955 996.877563 885.886353 869.675842 1060.950806 982.007080 954.711121 891.225586 1014.074280 1390.139526 1401.731567 1169.506104 1131.407715 985.692078 1002.484741 610.484680 829.746582 980.283691 905.198303 792.502625 1321.869019 842.278564 
conv_41_param_0 427.800171 553.733459 769.237732 310.974823 498.056274 589.359192 728.697205 507.132782 752.786499 624.550659 545.308899 532.336914 369.563904 594.965576 534.836243 667.246704 792.341980 628.923767 748.773010 557.645813 817.785095 463.928040 463.769745 720.547363 837.293579 574.090332 666.402649 489.768982 751.051086 729.602295 698.489258 593.482361 473.496460 463.781464 629.696411 597.347900 613.667847 497.608643 474.159424 546.147400 662.942871 599.311279 678.618652 789.999512 572.335754 860.046326 513.837036 726.080200 440.183868 446.363556 668.067810 787.581360 655.303223 740.573547 573.016663 679.552307 624.253052 559.328369 540.615417 376.203644 549.489136 749.250977 533.074097 625.909668 489.069061 486.181885 617.061218 565.238159 653.191650 775.584229 520.480347 568.586670 696.344238 553.334045 549.667236 684.534668 533.298218 504.436920 447.711914 559.312500 859.115723 794.261475 339.420654 492.550995 675.301270 581.565491 646.074951 777.119873 580.304626 592.995422 595.221802 635.051941 562.777771 617.208923 595.958679 740.816711 812.050964 727.725891 570.700378 614.547852 552.750366 483.967682 661.152222 628.388184 509.415314 759.779358 719.364380 607.732544 318.905548 909.825012 557.268677 605.179626 540.508240 640.323303 544.482971 677.949829 479.313019 719.321655 640.006409 581.743469 612.510681 568.034607 708.723633 536.941406 634.160645 640.344360 541.529114 854.980957 541.930054 597.185059 680.736511 724.766541 878.059875 506.279816 494.257996 412.334900 714.702881 674.942566 688.863525 448.536346 677.812439 735.005615 662.090271 427.616058 702.989929 750.142273 452.309662 508.462860 760.625366 621.300659 537.983215 523.601624 631.902161 718.285461 577.426514 676.901917 441.040527 542.496521 522.739929 482.416473 484.240082 855.618225 746.339539 657.017700 532.407959 588.614563 701.694519 705.991028 567.577576 574.785767 590.072327 749.257019 607.645935 692.183594 658.625854 596.089111 630.831848 782.780823 557.962769 459.880951 701.017639 711.556213 600.824524 511.796753 658.898376 563.809998 568.096069 681.857666 582.470459 600.726135 689.466980 580.489197 580.276733 315.613342 511.533783 571.234497 729.247742 664.553894 500.575104 560.615173 488.976807 536.921692 555.731323 617.786377 556.923401 619.829346 807.604187 608.505371 543.514099 558.360840 570.468323 563.949768 500.000336 636.345093 548.001526 505.635773 503.316162 632.424805 530.075928 739.971680 670.333862 589.685791 562.016052 672.198486 646.580994 629.677673 531.392395 700.951416 459.410461 667.672546 590.510376 475.308319 411.723206 557.669434 670.284058 732.763489 762.637085 827.743835 792.682617 574.550049 713.650024 836.555847 465.310822 504.667389 752.481995 688.883972 489.094116 638.601929 461.071198 320.298309 523.339722 645.515015 676.898621 718.570557 472.027100 504.941437 
conv_42_param_0 274.327850 267.615265 363.826721 327.385406 267.339966 197.858505 228.674179 290.806976 210.103165 255.474396 204.750854 211.392960 182.434601 242.548981 194.434860 337.180481 231.384689 295.070465 267.212463 205.322113 242.470154 373.330109 215.103592 214.595322 325.482483 321.109894 221.760834 194.818542 234.495819 227.173920 202.026520 274.935120 215.592667 380.528168 265.828033 198.110992 275.923889 236.575592 243.576920 189.137024 296.580322 257.947113 162.104187 240.247726 290.145813 286.118652 180.690063 227.465042 228.206436 270.516266 387.452454 305.693329 219.244293 159.973587 226.269440 259.423950 318.804596 329.644196 258.453064 206.550049 194.066772 224.900482 188.253525 227.085480 221.859726 239.936935 269.323212 267.900787 203.417816 235.291138 248.486481 142.690399 254.589508 215.989334 257.800079 216.116837 195.755478 297.731873 222.525696 229.504349 252.921814 231.078568 202.808624 316.589142 407.789642 234.824371 267.292511 198.718903 323.762695 280.776581 247.671860 265.533691 196.843262 278.845306 271.614471 241.393051 227.794067 241.411591 269.767212 373.527191 264.285706 175.975693 197.734131 322.805206 230.385254 190.254120 221.944061 231.705139 153.639496 253.295639 240.787125 238.691055 263.097229 244.593704 287.818970 194.765350 162.416565 184.839874 212.922272 313.412109 263.106171 637.547058 264.124146 280.933472 225.108810 218.400421 204.512131 282.941742 
conv_43_param_0 703.151245 1588.237305 1838.611450 779.163513 2450.519531 652.068542 1144.251221 1413.319702 856.360291 1175.023438 840.703735 932.308472 631.944702 780.532166 1847.577393 679.497437 1009.461609 702.751892 416.432983 909.107422 900.719604 1013.256409 996.920044 789.502441 534.814453 1291.469360 706.216248 523.979858 986.213745 871.978455 1552.840820 572.838745 817.806763 572.918823 796.159912 491.636810 528.399597 799.047119 724.065613 565.746338 1136.763184 1224.597900 1176.650635 858.824585 1744.782593 856.262634 739.154724 2229.291992 738.161682 819.946533 1219.583618 1054.397095 697.209656 820.414062 590.911255 706.912903 719.218323 674.802917 821.936096 702.306458 700.772034 532.021790 944.298950 733.921631 1480.167236 1100.272583 866.088013 918.776062 773.889526 1373.179565 647.207581 521.345398 1360.857056 677.641724 597.216675 1018.636658 1144.361572 476.537079 374.021118 1310.468506 1838.485840 502.310852 805.284729 594.012695 778.125305 971.231750 1293.016724 1349.471558 636.791748 812.597839 753.063843 475.111389 1034.885620 714.696350 972.871216 758.001404 894.904541 649.426575 603.517578 1371.975830 521.638672 746.331299 935.237061 542.767761 581.554321 530.273254 1566.217529 1842.025513 1308.048462 683.026550 1068.077148 618.181702 596.925476 644.115234 1096.324829 846.047058 438.711182 831.952332 764.302429 639.191284 762.024963 568.861328 2480.446289 735.427734 1519.383057 780.996826 818.001526 623.526184 1120.307983 912.358276 1131.602051 791.947510 404.785614 1224.445557 589.458008 1297.579712 503.370728 495.567535 824.370056 840.293762 878.606384 673.532104 877.971130 722.812683 583.886536 748.360535 731.884827 527.067200 1120.047363 1259.473389 1185.898804 922.995850 1715.228149 737.674438 1576.325562 845.143494 693.847351 1088.454346 1258.326904 793.540955 755.838135 972.941223 728.098511 1635.506836 658.288330 1116.616211 913.597778 639.298950 804.759949 1579.968750 1281.583374 611.488098 472.096008 1038.198730 964.587158 840.408386 639.319336 697.263123 768.555603 1140.733398 1732.765259 618.944641 899.753479 855.589844 1201.881958 706.967590 1085.908813 640.985168 517.745972 865.898743 631.342163 773.939880 493.811890 1062.735107 1204.124146 610.128662 523.348755 760.481323 762.600220 1525.322510 685.416626 605.724670 477.725189 648.367859 805.119507 1106.484619 898.299377 641.961365 718.265381 637.672852 907.713867 788.150391 889.854065 1014.293823 521.788391 668.243530 747.098450 1604.806274 765.903748 987.962646 806.852295 1239.708252 527.453979 760.582214 741.810669 1286.121338 892.140564 1040.190552 527.247070 1271.746094 1172.468140 1909.618286 605.288208 353.149445 810.032715 1440.099487 689.120789 711.405945 718.507324 697.986511 771.966064 1527.334839 2239.244629 1010.677551 852.782898 770.906738 506.924286 925.561890 1265.233154 667.007935 501.560120 761.023376 549.990906 859.902283 1045.807373 472.548157 
conv_44_param_0 524.930664 435.808777 323.963409 563.180481 458.315796 336.150116 554.795410 426.354065 434.084900 276.225983 576.570923 586.370667 404.347168 370.772766 608.325684 285.722015 346.270508 291.694794 420.902740 474.010742 372.279785 578.696472 272.045135 381.588440 436.641022 559.869507 558.393799 415.982849 541.292480 553.921692 414.505524 356.979309 644.760742 469.096100 336.843414 183.645966 391.150085 369.750214 421.045929 421.759827 407.612915 257.520813 292.949463 351.527405 306.065460 477.067322 498.746582 328.038727 428.755798 200.839569 482.328339 544.690002 309.399963 287.156799 288.427734 539.470886 541.732117 315.977142 707.033508 114.440552 301.728699 417.715668 365.876984 453.207245 361.433929 437.502228 522.927551 440.895905 220.638290 418.914795 516.044739 873.323853 436.225250 484.228241 664.548645 683.564575 384.280334 291.356506 319.693329 417.086151 417.022461 470.498932 461.709381 431.479858 475.159973 371.077209 272.317780 407.726196 439.597534 418.554718 245.400513 670.516479 604.512939 304.096588 238.054825 522.203613 432.634491 641.073975 392.895203 517.917114 323.842346 440.182892 345.712738 187.110046 389.276978 433.066101 317.992615 519.609192 300.486816 481.283844 404.881561 264.625153 421.458252 1000.575195 261.443817 491.329102 640.199707 380.877014 469.585724 465.357056 224.468262 298.579773 322.920441 416.681885 437.670410 873.550537 325.280121 412.514374 
conv_45_param_0 214.670654 469.527100 437.851044 501.033051 419.602448 332.586731 448.113586 230.070877 368.946838 359.314026 278.037567 302.361176 256.755920 322.005005 322.931152 369.676331 242.664368 280.272003 258.641510 303.700195 271.709320 255.266479 308.293945 383.503265 247.147232 438.899872 485.815247 217.995224 341.356201 326.704346 345.446808 355.700928 
conv_46_param_0 57.234142 35.843384 61.794594 62.189796 50.589550 57.719131 58.746342 64.591537 49.536140 100.639420 70.119339 55.074223 49.926373 58.390663 42.329384 62.230030 111.749825 64.440056 60.750214 44.531322 60.236725 82.676712 66.585472 94.397751 50.112804 68.180489 60.145596 68.143707 59.573097 82.614883 49.289864 107.284790 
conv_47_param_0 173.060410 77.549072 172.877914 106.934174 146.255783 68.391632 130.927353 158.859894 114.438499 148.007950 83.165802 115.329216 207.606171 144.020218 120.777229 153.496750 124.766815 201.385437 108.691101 136.956879 147.586121 138.620956 68.532135 236.987488 171.254974 139.243973 137.309021 94.615051 226.026764 130.865982 90.348038 97.140594 
conv_48_param_0 123.426071 148.970215 203.602539 74.967834 264.799713 338.040588 108.191208 88.190178 266.139557 93.474037 72.888557 195.024124 153.040344 103.840271 116.079956 170.908875 113.152069 105.068863 138.389252 125.480186 106.330055 92.646317 106.042885 160.461761 168.752579 121.012039 176.129105 187.445129 109.945763 95.056664 131.387695 91.437271 
conv_49_param_0 75.032951 79.008812 60.605198 90.989403 105.021339 31.239767 43.625092 24.849302 50.288342 57.554108 85.779556 64.726845 73.248436 70.475418 59.849796 82.242500 67.097343 54.128139 50.001831 84.255035 76.615257 78.265556 62.542732 99.759338 79.995468 81.273849 66.399574 55.309330 59.851311 82.169662 83.737389 98.906143 
conv_50_param_0 114.683365 158.598831 132.407669 173.601028 200.832489 215.118835 179.431595 196.255905 204.987350 80.029518 160.480896 128.956528 151.983047 140.961456 122.950447 140.543427 91.051102 160.237457 174.811050 136.502014 150.801727 217.538956 160.720535 178.456970 145.126373 202.486053 158.663910 150.000488 177.638474 159.152237 166.456497 174.788452 
conv_51_param_0 395.015503 345.310272 387.800323 370.799377 470.580872 407.656769 535.064819 552.781799 362.133453 401.874908 409.724731 468.402283 592.906311 441.419373 430.025787 535.462769 402.794464 388.080444 829.924866 336.888000 295.937531 481.762390 515.864868 455.922913 417.335785 317.785370 294.377991 440.326538 352.278107 513.366333 319.319763 366.765106 452.505676 425.484924 574.710693 369.105408 275.346710 335.067139 433.634460 635.562195 390.906738 446.206818 271.206604 735.354919 397.987366 324.587830 615.491333 490.108032 220.392746 396.538116 325.876465 427.609039 507.071960 440.634460 362.817535 361.221375 584.161438 438.654572 385.339996 472.111481 459.071259 519.440613 306.338043 392.065430 
conv_52_param_0 639.574097 410.216553 456.755615 348.942841 520.830139 404.640656 394.138092 282.632172 199.492554 218.166428 702.405884 498.011566 593.324097 383.694427 476.925812 344.552429 532.032410 609.417908 323.865143 705.629395 445.870483 316.378052 425.828003 442.674805 341.473022 907.225403 346.587219 470.875122 458.258575 366.022827 343.169647 263.265839 497.509247 409.138031 715.574036 504.666016 445.915833 235.028458 470.315002 371.805511 376.692719 443.520416 379.545349 278.148041 564.210754 419.284485 280.092957 252.966705 393.264465 509.974792 343.665253 402.542542 528.596985 210.650024 441.104218 448.167145 407.875244 591.646484 517.646912 413.100800 411.213501 349.739380 356.316010 586.653076 523.082886 354.022949 338.032806 427.762421 530.079102 561.927307 195.367294 777.779053 356.571594 401.576996 301.342102 703.768188 474.830719 514.030640 356.113068 453.108734 348.701080 266.266052 418.246063 282.955017 334.206268 415.687317 278.822266 464.776886 621.742432 338.468475 785.216187 210.189163 250.642029 821.193359 674.340637 610.336182 601.464844 497.253845 507.185455 548.737976 461.375916 361.737335 534.926392 545.440552 274.625702 276.064819 364.856476 432.234833 415.028473 420.549744 324.540466 385.247833 337.873718 434.005554 502.613129 422.393524 662.339050 493.780884 358.450104 253.560532 257.952332 497.052643 638.995850 300.946472 388.710938 551.143738 335.332336 353.787689 
conv_53_param_0 648.544739 460.114197 181.550751 532.885437 398.254089 240.190430 319.006622 490.509521 428.580200 269.282745 535.420105 608.901855 385.262146 251.665787 601.220154 316.175629 299.798706 400.537750 562.738831 361.978638 710.515747 664.358459 171.173065 358.876068 109.498276 381.198639 499.420380 650.925720 250.817139 477.671692 421.981049 476.155884 342.705048 374.092773 316.380524 484.644806 479.685455 286.968201 505.343475 307.958344 304.587860 329.561676 219.550949 242.740219 577.961731 390.965302 240.469193 756.348511 340.274078 321.159210 263.121063 299.814056 243.935867 376.641174 285.331818 374.224091 409.152344 196.234528 275.358673 308.625763 385.015259 239.850266 451.153076 319.680450 
conv_54_param_0 425.153046 308.834808 621.269958 510.426178 293.235840 305.534607 433.106628 582.068054 398.271301 491.079132 387.242371 367.128906 471.761475 405.099976 317.687988 418.139771 
conv_55_param_0 11.068315 15.809250 11.648070 13.823806 12.054734 19.088406 12.180324 15.498575 13.018341 13.384912 12.348566 12.734901 17.979456 11.366151 14.779210 14.992253 
conv_56_param_0 59.165844 401.704163 130.771286 157.386261 88.392487 154.580811 97.478943 148.584808 110.224731 92.261078 68.700882 64.082138 50.775478 81.476181 68.672920 101.438866 
conv_57_param_0 41.561565 69.233521 40.100750 82.665337 60.937248 82.009712 44.538994 64.639038 99.710442 89.707054 59.635593 63.713230 89.546539 202.192474 53.906712 68.950645 
conv_58_param_0 56.812759 51.739574 45.752411 34.191795 24.379801 45.302532 47.607471 51.115509 39.225246 28.874914 67.770561 32.197529 27.878822 46.730244 36.745388 37.028011 
conv_59_param_0 80.043076 107.459061 123.027573 145.835739 129.907867 94.558502 124.113098 160.455582 85.701508 55.293354 136.200500 158.449722 112.568565 71.592476 167.621216 95.323402 
conv_60_param_0 245.682800 281.403778 274.635040 409.815887 436.415466 338.427979 315.496002 249.097427 383.819794 329.100586 395.242340 236.992004 320.806763 312.553192 269.802979 262.963013 289.838776 226.818497 457.260651 410.822144 409.341370 187.127808 388.091827 300.560181 310.348480 263.182251 255.518494 283.511322 241.947128 279.611267 297.193451 388.842438 
conv_61_param_0 515.990723 256.380646 259.414978 99.654053 158.922318 264.929993 160.564026 203.843170 159.517929 184.145477 206.826202 355.257019 118.059044 245.255783 165.112579 274.929626 307.813446 247.112610 435.413269 318.193085 323.778656 137.884644 336.355408 242.298126 171.944946 281.118500 179.161224 96.871773 400.522278 334.098541 205.821930 347.378418 277.365295 249.822357 262.711334 104.510162 131.743942 385.568359 360.731750 198.638275 147.917725 248.655075 138.924973 101.007675 146.624023 315.077728 194.054504 176.456924 77.871658 273.676117 170.231918 329.504608 202.624786 312.074799 128.434280 166.434906 126.909698 222.825867 271.542755 345.108551 193.764786 244.274872 147.928009 178.326691 
conv_62_param_0 776.376221 759.452698 728.792236 1004.319702 679.555237 722.742981 409.884247 636.562134 832.442688 686.764709 765.564636 1182.522461 997.048767 632.179321 735.568481 786.450256 972.007996 484.655914 722.252869 725.491333 1630.304321 1429.360718 598.908447 1009.372437 578.729309 714.319885 666.817017 1275.315430 684.337830 757.084106 928.697388 704.837158 824.404968 1061.974854 1017.788940 601.258972 743.930420 559.791992 740.692444 1144.004639 763.479675 778.489380 672.522888 610.657410 471.547394 1038.363403 593.166626 624.492432 668.399841 571.193420 1275.847656 896.606873 622.447021 764.687805 588.319702 490.325378 604.777771 966.095947 589.290466 432.945648 809.182068 582.930786 582.254639 607.967346 
conv_63_param_0 358.050323 204.646576 204.521240 163.986526 285.226044 147.749985 339.590759 139.755005 441.150452 476.106201 223.196716 287.935638 98.757561 236.774994 247.981857 200.229111 309.988953 154.831436 379.349030 355.776794 328.553772 370.822357 396.374756 461.513885 285.441833 264.080994 183.269196 225.068832 208.047195 276.894440 262.259247 213.841156 399.842682 391.459747 280.595428 539.646790 253.074005 414.825470 330.481018 387.764618 387.007172 320.831055 288.902588 455.003387 127.688583 172.654373 274.231323 361.049652 462.690460 382.821655 249.875031 231.235855 271.650421 320.212585 320.400909 147.448807 270.945557 343.401276 315.408295 240.691452 167.256409 417.334839 265.743805 360.415558 339.209351 289.051453 459.422729 292.669220 326.018677 246.395477 252.361603 405.994385 333.841827 239.020294 155.149811 370.858490 243.560684 252.467361 237.019913 215.752441 238.588287 263.492493 441.074524 287.895508 395.900024 204.508194 222.323685 211.647385 344.320068 289.282684 370.832520 237.737686 275.017181 214.177948 406.138794 245.951218 279.853302 342.006744 309.623810 284.862305 343.072815 164.676559 374.894348 245.826538 254.914200 331.896820 270.347015 360.022369 183.875473 218.251389 261.271240 147.572693 295.103607 154.031464 463.483063 310.084808 249.435150 405.001068 285.631378 278.329651 433.285431 272.706390 255.475540 253.005310 281.342316 175.192291 266.972565 263.212250 
conv_64_param_0 480.517883 575.500916 379.860016 952.831421 358.861298 1124.373169 360.597626 533.346863 906.145081 778.209045 545.976196 638.125366 309.593994 494.852539 577.918213 709.424255 864.748901 523.540771 791.948730 493.406555 342.544983 974.212036 819.371582 541.544617 580.053040 491.846863 480.040375 516.547241 633.907593 1109.242554 625.514404 1252.091797 
conv_65_param_0 18.911697 57.407597 20.899614 69.350388 22.250034 35.797333 22.518415 28.991234 17.573587 29.962069 33.316227 26.604698 26.799601 33.974609 56.235020 21.210194 39.304920 20.528088 30.789230 42.234997 24.616682 22.448633 25.115078 29.856108 19.719381 36.494675 28.651075 31.718172 55.265713 20.794771 76.991394 30.545353 
conv_66_param_0 128.880692 192.989563 69.782440 133.744156 267.573273 79.413734 179.510269 124.751701 90.486069 100.171303 137.644867 80.619576 107.732872 87.709686 100.615547 107.222275 68.811012 105.586281 98.648766 89.149155 53.484943 75.356018 103.035492 93.283897 72.937683 94.183258 103.336357 141.729843 322.814301 62.553757 133.477737 92.680145 
conv_67_param_0 86.382530 50.632816 54.480389 134.122467 62.413029 115.025963 41.650406 37.943005 60.871220 71.606094 112.353119 45.643715 51.805313 67.985443 49.476677 64.079521 54.568832 169.895599 55.428913 61.832165 159.778549 49.682014 70.528404 70.317558 112.408722 70.943314 56.122406 65.190498 83.595367 54.411671 57.501995 57.936531 
conv_68_param_0 45.171303 82.247284 61.773857 36.484657 32.568192 61.448040 36.925594 62.815750 16.163469 53.701603 25.951029 88.111176 71.232208 53.854961 66.540924 49.128281 54.434082 90.246086 66.780746 38.081242 54.669392 32.077438 31.600578 70.090546 73.889023 53.961803 44.440292 46.035336 61.325294 52.086891 26.037374 72.869751 
conv_69_param_0 157.440140 139.696442 254.424408 351.517792 87.453453 188.095505 276.766418 204.985977 235.322662 188.155975 282.730469 209.629547 129.308090 238.870819 286.552917 299.117462 242.180969 248.085358 129.387878 160.524597 262.620758 176.786224 98.901901 385.163971 136.619629 164.107697 171.595779 182.438873 191.301483 198.603638 168.324127 173.648911 
conv_70_param_0 192.043549 301.794617 152.060394 320.220917 305.035980 100.427765 214.234299 303.843628 250.315369 381.815002 532.499023 356.762756 205.510727 263.107635 270.252289 302.051056 360.578247 327.114868 320.606689 280.371429 342.388855 284.656677 198.659393 548.960693 212.054535 197.752884 345.999878 364.383606 292.617462 236.244263 219.096970 321.170685 298.710266 302.211700 207.280029 233.655579 344.768585 83.716736 326.580872 456.929626 460.167511 340.172455 444.875854 279.473236 330.006561 244.742615 295.675842 427.340118 191.912720 285.340454 320.632233 322.792877 511.206879 292.870331 152.480743 251.549637 241.502960 324.948975 101.364632 405.419495 213.530777 356.145844 313.167023 307.583252 
conv_71_param_0 492.987183 243.614548 940.196289 678.212891 418.388519 302.311188 561.729370 386.723053 478.226624 551.718628 153.348618 782.220215 386.667542 601.213501 535.488098 694.976440 495.637543 314.379181 179.738358 379.573212 630.151794 398.002472 326.518005 416.842316 237.093918 424.932983 303.891968 487.904816 288.119690 442.298096 93.455040 391.942261 154.850800 590.008118 415.426208 173.645203 839.950317 442.403961 569.643188 1193.727783 594.534912 319.821289 400.461609 564.522217 410.694214 1464.008667 300.216278 607.294067 242.670944 206.017471 566.280945 367.885071 543.869385 490.021759 470.393555 324.721588 63.125092 446.020874 573.290405 459.160828 296.632629 260.289764 797.611877 716.085205 498.504272 491.578369 864.673889 1382.164673 209.997620 402.409546 534.308716 244.437271 305.046753 572.729919 813.943787 390.663055 377.434296 387.810211 161.499557 328.890411 443.629700 162.901764 708.046997 285.911133 144.792542 187.783936 199.855499 306.380188 434.083588 553.243103 855.973511 133.893707 775.208618 774.155945 210.776093 231.246948 331.542114 423.458984 198.951202 434.849182 339.856171 144.566360 333.296936 401.017303 316.795685 51.954304 436.197510 210.452423 261.670532 414.848572 392.516327 430.900482 755.558472 458.144073 269.471832 447.180511 522.991882 511.453369 279.270996 361.026367 583.517883 800.716492 835.278137 826.302368 519.280640 421.457092 495.804840 640.026489 
conv_72_param_0 656.088135 1262.689697 1236.636353 793.263611 535.587646 931.504089 649.852173 584.698608 608.560669 448.047455 549.319458 601.953552 949.496826 940.941589 720.532715 750.397827 884.819946 391.538849 884.758606 602.582825 578.418274 659.075012 705.162781 392.649353 697.526245 779.259216 741.466553 1083.983276 1165.500488 562.034790 747.559326 493.690826 308.951691 826.011780 848.776184 855.625061 457.387146 582.845886 858.278748 1107.657227 618.312622 782.256104 849.805481 885.783997 522.920715 742.809570 781.608521 871.819275 549.783020 592.970825 668.557861 335.602203 1533.244263 958.541931 688.896240 491.941010 776.534485 655.691162 689.948120 470.406433 646.328796 846.201843 998.948242 928.405945 784.281250 737.853943 579.154968 1009.500488 702.995361 818.203125 603.117676 773.027771 857.413757 698.230713 660.641541 888.653748 676.708374 614.884399 901.676147 960.912781 408.283020 639.940979 592.784119 539.570923 780.429749 811.639404 1545.025879 834.160950 279.492767 604.152466 998.603088 395.283325 811.792480 1023.846375 959.153381 487.136963 961.450989 827.663940 658.665100 572.371094 591.431030 855.936279 580.214600 886.029236 423.155121 768.004517 831.169434 802.548096 459.989288 622.292236 857.955200 724.906494 1508.477417 790.297119 512.539673 882.080872 633.118408 580.909546 686.649475 569.981445 721.846924 522.393066 759.758362 528.575928 802.378479 565.194336 589.084412 620.774841 
conv_73_param_0 231.448029 292.741272 220.765305 234.591919 287.846741 296.578461 275.553680 245.248047 218.408798 313.107086 310.877380 220.233444 209.998642 156.725372 283.831360 331.878204 194.179108 282.266846 130.170319 238.921387 237.869110 174.325211 242.709427 249.149368 257.553528 196.452530 245.905518 274.091888 276.187683 205.335052 204.907776 236.467865 217.468689 266.905701 251.408005 261.473602 197.830170 339.896698 325.988892 237.571198 283.068420 201.163147 198.425629 307.449005 301.531891 215.077148 294.521454 245.404694 201.248672 287.785217 204.307953 254.510864 277.063354 241.638748 261.534698 156.747620 242.519882 302.850189 298.787659 293.755219 248.855164 227.021622 244.985062 202.981552 253.196365 228.801941 224.575943 214.734726 245.680817 252.155151 233.726120 236.274765 220.190475 158.094528 271.433899 342.101807 252.153229 252.987549 367.454163 241.947357 330.270050 328.850464 222.174088 217.075378 290.057556 335.669830 145.987289 293.616302 283.110687 218.517609 220.295746 345.867554 320.156250 225.171707 154.822495 243.884552 236.483063 297.077209 207.138931 248.934372 220.663177 263.963837 246.412689 260.395721 284.831085 191.247589 155.947739 275.342346 310.343872 222.174026 234.621490 198.576584 195.216446 324.406128 272.482788 215.872467 278.326599 318.406097 194.882339 219.450333 275.791199 263.598724 254.274017 173.193649 226.676636 272.904053 303.759399 248.681396 318.846039 619.431580 252.572052 269.189789 488.885864 271.832092 440.019379 223.203201 369.990753 344.259491 345.995392 591.638916 249.469406 315.487030 258.497559 163.443344 266.309570 220.550476 396.650635 517.155457 618.314636 425.951874 207.985382 495.143494 229.373901 338.250824 322.775665 375.060303 201.182938 377.569489 399.099548 233.952850 213.141861 249.830536 349.429047 262.558929 359.631683 394.545715 410.281677 346.369019 286.465454 490.757629 171.448288 264.412384 293.870728 392.369812 316.048706 359.018890 402.358826 542.520691 223.629974 507.834015 180.356094 232.374527 490.846558 451.817871 400.713226 142.858948 358.559418 321.842041 284.132385 302.541046 551.058594 335.322052 302.160248 557.599792 426.094421 287.532532 460.182098 507.033264 303.792450 330.043274 332.262207 366.454590 333.949249 399.428741 296.571136 367.348846 288.539398 387.735779 604.558716 114.443184 241.279190 185.882538 384.461517 552.812500 300.538757 277.817566 471.781952 338.726776 430.940094 419.609161 269.077332 345.670929 300.098114 223.307312 699.377686 309.599640 304.186554 353.196594 548.706482 469.774963 355.947662 230.019363 278.786407 359.147583 353.211609 449.463165 398.146301 380.169281 655.472534 475.477020 329.017700 445.612793 388.503296 386.222382 360.459778 344.998901 173.886536 557.067810 348.139587 250.731491 492.025848 243.413025 574.344543 153.917755 482.751190 544.420532 
conv_74_param_0 147.172897 280.359894 216.207489 153.008667 195.367233 201.415283 404.825623 213.139877 374.796387 136.539474 190.358383 64.119347 173.451874 102.751190 127.327827 142.372116 159.462219 121.816719 260.199585 631.856018 135.179382 154.639999 199.404083 170.375412 265.585632 147.830383 186.848465 90.402321 189.805328 135.994156 210.374756 207.694763 127.058441 111.544525 198.188202 87.943695 586.275452 341.499542 165.527863 266.367035 171.795349 132.080994 234.255524 243.752884 179.269592 152.658356 151.505356 64.370529 208.771286 105.423050 154.197174 151.842575 132.675797 167.981079 177.435364 150.717529 141.508438 153.690994 78.780083 144.254639 144.138931 208.668045 78.319298 222.914734 
conv_75_param_0 72.478584 114.344490 134.643631 50.822556 243.977142 70.721519 93.545395 66.235565 462.610382 107.849678 107.738640 103.091820 92.019882 49.156689 144.357452 161.197021 75.343788 93.387810 61.278942 302.430725 99.991142 108.725204 72.526031 163.355957 89.237808 83.949707 80.181847 65.695526 57.371056 163.305679 63.310497 82.371964 81.764709 47.438602 328.153229 47.197117 54.259518 65.417229 129.412018 72.787125 136.679779 72.274117 137.562378 57.463272 125.595657 79.079361 61.724197 84.264359 172.182892 103.190346 53.526520 261.445709 53.606678 54.388836 117.526413 120.351234 323.858246 75.656769 85.367432 96.907677 92.200951 70.558022 141.559906 70.043137 59.813892 98.179909 70.581169 113.431648 80.329094 76.308777 93.888870 113.783562 114.454605 95.640152 110.456711 157.024551 118.638939 75.220085 85.353256 49.583351 133.240540 139.885712 96.037315 141.549667 84.374878 183.112091 77.608749 45.974117 133.691101 105.124046 50.195522 137.218353 95.639503 338.442139 147.629730 221.187073 92.205254 69.482445 106.789536 139.786972 221.903076 53.097858 159.830765 136.973892 53.631012 84.750359 109.596664 101.835037 88.270004 181.512085 109.868454 171.198212 83.591156 123.490074 243.984039 115.980286 79.670212 986.736938 164.131638 266.735687 85.165565 57.247227 63.752449 85.904587 104.236252 129.781509 55.553814 132.664978 
conv_76_param_0 474.518280 483.277283 689.633362 328.900116 407.551117 333.491791 559.231567 462.608734 462.676178 424.350647 340.710663 398.709900 586.563110 429.263184 445.693268 406.688080 358.098389 461.332214 379.897522 440.493988 770.471863 447.400269 482.108063 411.428802 593.910278 444.668213 485.545868 448.038116 468.858582 368.592194 554.055786 346.018372 416.932770 379.585907 368.217651 340.017822 473.873779 380.287659 365.577789 450.955994 460.975189 368.313171 495.304626 285.923981 352.003693 302.902008 342.487061 409.741547 403.630829 376.876984 459.920624 346.597351 327.888306 261.275177 400.711426 486.654327 399.283722 406.698639 356.694916 479.696320 360.485413 346.535095 390.632629 417.715149 167.686325 940.272522 937.850769 923.276917 461.344513 250.063980 440.081879 1328.365479 336.664490 300.033112 2390.186279 1518.998901 211.500275 2874.336914 2206.272705 1529.789917 279.157715 224.702179 1914.401367 268.255371 1126.224854 217.141022 761.984558 223.713898 274.248596 207.859482 1827.068481 584.211487 1624.255249 2318.651123 228.070160 350.815613 1468.747559 320.695251 180.609695 398.868500 213.025314 536.561340 3077.358887 2764.222168 1368.449829 420.119781 305.063049 798.922913 428.498718 287.589172 263.735657 610.838318 2467.209717 2294.006348 342.085968 2716.934326 227.212555 524.652527 447.584564 2966.362793 309.373566 157.587738 2031.604004 565.730530 1674.655151 2046.527466 548.495972 1174.297729 506.645538 515.973450 489.800781 745.043823 652.613342 626.635498 687.419434 717.187073 865.787659 812.742798 648.106323 603.992310 763.802429 644.949768 662.393860 761.157715 1041.278320 873.964966 753.174988 512.438416 939.424011 616.222412 658.689758 538.872681 677.586182 773.260254 1054.266235 650.845032 729.438293 737.649475 697.696716 593.088196 491.132721 558.808472 441.536835 347.202972 468.359497 655.663452 516.163208 511.950470 358.994354 416.287720 520.259521 353.001556 724.829285 618.033997 514.744751 734.731384 413.553619 445.574951 354.420471 576.813171 533.580750 631.330322 684.007141 680.363953 547.661011 505.582214 345.616302 287.416229 541.236023 335.306885 477.130127 517.046448 267.347595 1682.655640 696.266235 2132.195557 194.855255 149.012314 1339.694336 1007.257385 919.557617 231.407745 1528.846802 415.670532 980.657593 406.415314 177.506104 571.952148 622.865906 1234.660278 141.544525 736.691162 1114.791748 1290.354370 1013.077759 172.762115 2140.212158 1305.082520 78.739609 810.370361 1277.468994 1522.768433 1192.024902 1551.157959 1683.994263 1634.148804 1628.269287 2201.912354 836.491028 1237.263428 1374.366211 123.061371 1808.335327 1657.732056 92.586365 185.921951 1559.302856 257.798676 914.076233 259.589081 2125.701904 1636.626831 130.122162 209.187332 2293.375732 1248.353271 88.630829 238.640442 505.548370 2109.503174 206.354858 1697.776733 1677.903564 123.412796 2023.630859 639.722656 
convdw_244_param_0 146.026749 30.752693 72.654800 27.440361 168.956390 584.338806 143.343536 33.559769 182.123535 203.605606 22.024843 20.320189 139.555466 22.567789 11.563962 33.503510 397.247742 170.063675 31.698854 188.477661 97.577156 262.233978 115.084236 410.075714 287.462494 202.156662 25.250841 51.459785 16.539545 39.772007 202.655792 307.625458 29.916700 661.962036 251.828445 375.621918 173.581879 145.948700 13.145096 18.084684 33.680214 104.987572 148.756302 66.937157 412.151276 147.288498 139.219055 74.563072 27.825552 28.729197 150.616348 27.941891 136.235748 201.853638 84.898308 24.424622 158.814728 192.347839 17.152517 138.397186 31.516666 23.736504 100.359207 37.019295 1518.122681 51.951233 61.826294 21.223883 231.592590 230.318039 67.816193 33.624832 68.256821 540.426025 55.067707 113.794037 47.366486 1421.521118 286.472351 152.529831 96.448334 25.534988 172.932831 128.523026 53.197960 31.011700 50.646442 233.978745 20.373669 65.308670 227.428894 67.410088 32.743668 35.508442 42.222778 36.820908 42.354511 33.519207 28.617308 25.981812 70.761681 64.449539 37.793434 245.080460 17.222794 37.647026 183.303192 596.608948 33.404915 180.773087 119.731529 417.468903 25.559153 25.540352 265.505005 551.176208 25.493275 59.680672 198.371582 213.897873 154.191467 28.153519 1415.386353 28.564520 26.336617 260.773346 19.547886 35.406422 
conv_77_param_0 726.542358 694.468872 806.194580 554.967224 890.672607 998.257568 531.879089 1102.967529 668.806213 1022.353516 862.257080 677.504150 504.024994 367.971008 884.302551 603.376587 735.511108 998.676208 978.231689 639.269592 1210.087769 930.194763 675.123230 689.807739 567.966614 805.978027 896.260559 1265.326416 355.056702 1062.586182 702.658447 730.162659 1154.342163 1002.014404 516.291626 726.283203 1903.069092 833.448059 781.454773 509.871368 887.305603 1195.396240 697.534607 526.994080 931.029297 852.411987 659.523376 814.833008 1069.290649 502.949158 1156.715210 733.320068 1247.550537 465.044891 1041.948853 1103.284668 371.495758 984.928711 937.565063 501.789764 1425.985229 964.470642 823.803894 1106.778687 460.465332 554.928467 1416.911865 1047.167480 562.612305 1392.946167 928.809937 963.421997 625.457703 1127.573608 604.218079 1101.555420 503.300232 718.259216 913.228210 782.128296 799.567566 1027.796631 840.554077 695.438660 1099.636230 1084.320801 732.663757 796.637146 907.769714 1020.482788 764.530090 1017.320679 1057.422852 892.052856 752.574280 602.873352 1214.749023 826.657776 1270.367188 931.267578 551.334717 1106.151367 673.553772 466.305542 796.929016 717.656372 779.125793 704.284790 709.436279 816.351379 768.830078 1374.346313 1059.179810 760.364624 1198.141968 770.443665 812.748535 350.563049 834.794983 470.331146 816.205322 2459.427979 542.059143 879.993286 981.899841 1052.316040 897.097717 961.099426 
conv_78_param_0 177.455734 514.261841 372.031494 431.721100 686.342896 421.023956 284.730652 479.534973 462.275269 479.507172 495.317078 390.063446 533.371948 560.862427 424.243744 460.982941 404.298309 481.475708 383.006744 679.086670 541.509705 504.067383 427.886597 443.156586 225.107697 314.324615 707.796448 497.462311 627.400330 377.748047 372.240356 320.326385 422.239502 609.240356 548.550598 339.973755 335.115540 367.814880 498.082703 562.478821 376.690063 701.628174 308.441010 397.961029 364.282410 469.985992 549.897949 335.835175 613.447937 351.652679 439.313934 479.298676 382.167938 644.265076 226.197571 337.498779 662.640076 509.960052 446.931702 453.643860 415.445099 589.969727 483.913483 496.333801 344.379822 344.023438 435.850739 209.137512 530.901123 655.341797 527.892456 131.371674 378.667236 458.247528 310.916931 466.518555 561.566040 520.824036 444.678711 449.462158 428.233795 779.917725 374.893188 470.329224 341.392120 671.333679 557.356201 194.656387 325.343872 276.106079 346.211700 377.759430 477.179565 515.266724 453.966431 533.292236 380.709137 453.746216 338.489685 281.235504 298.441650 335.692078 542.324036 437.403412 528.156006 405.902740 582.276306 333.740662 671.922974 496.363647 406.446869 451.213837 353.610870 229.899414 464.761322 438.967468 506.032654 217.698029 481.246826 338.848022 344.267303 335.083954 325.258148 209.017990 328.912292 464.225159 550.717346 321.790405 454.494507 369.591461 476.871185 489.469147 350.343842 506.309662 562.362244 566.946045 543.453796 537.317017 456.565002 613.145935 315.158691 193.847168 324.918152 178.949265 539.700317 533.287170 421.421448 412.855804 443.388062 475.339172 374.327301 509.203766 373.490875 283.220184 559.059265 391.922577 438.643127 460.090179 672.830505 493.065125 415.105103 376.123871 525.713745 455.122681 471.244263 505.084290 391.490204 378.045593 275.114075 293.659576 607.093079 261.931885 402.033875 566.836792 427.472809 322.701599 544.223389 455.350922 241.674820 376.755463 460.674072 472.311523 328.884766 478.916870 600.395874 347.634552 546.161255 504.054138 412.888702 518.097107 505.061371 520.921326 455.242432 388.178619 295.221771 186.246689 447.967377 521.511292 336.235657 273.810486 183.903488 490.454102 469.406372 481.884033 505.996368 177.002609 573.129089 567.245178 382.561798 509.301666 739.691162 449.383881 438.650635 380.830292 406.481842 269.230560 524.685913 547.506287 618.283325 566.282227 505.982788 475.541534 324.490112 402.484619 745.193176 300.069183 566.516846 230.399475 471.167297 550.674316 188.433014 523.727905 402.140411 692.716675 315.015320 571.573730 474.449432 395.704895 637.317993 581.494446 372.536377 556.759399 779.955811 523.483826 521.536743 511.902924 522.005554 546.396301 551.425903 546.435486 759.722778 268.001038 460.290314 262.766449 563.141663 192.897156 
conv_79_param_0 795.311707 698.377014 542.987122 551.667664 566.449097 602.669678 508.489319 515.623779 1047.559814 633.991577 644.919067 935.668091 522.063721 451.443573 411.883453 1079.655273 566.928772 697.764587 556.799255 1030.187622 639.522766 613.838196 687.462646 829.162048 362.433075 531.195007 304.056671 657.332947 426.243622 385.879425 567.053162 590.318909 300.558685 424.823059 566.936462 697.832458 402.602264 226.526016 397.151672 505.257233 490.203491 503.009125 335.308929 280.644226 777.479553 429.537262 504.461090 435.609619 441.994904 457.225189 588.389282 454.242889 468.563110 495.297089 589.659363 543.935608 2901.110840 683.772156 521.177368 620.702759 484.506165 470.749298 448.905945 426.859650 391.884644 521.425781 289.115417 805.899109 408.532196 646.896606 531.431152 587.060242 653.897766 687.895813 450.315430 554.251160 749.308594 466.387390 701.761963 410.591614 584.232483 506.975067 641.672607 272.437469 465.702942 1079.569824 580.780823 514.982849 531.364868 502.178833 517.737854 479.648468 399.156769 783.859497 459.332916 760.637695 623.652954 713.889648 422.301636 509.873810 1339.523804 357.326782 1426.981445 1200.000488 410.391205 778.493530 269.065186 1331.062134 594.640015 545.172791 578.933411 753.163757 631.201965 414.493286 717.846252 578.726685 655.446167 2230.039307 428.121124 707.205933 363.511597 374.217926 955.844299 561.689331 528.779663 400.748230 479.342987 446.416168 
conv_80_param_0 760.872070 1097.243408 657.469543 361.904816 883.681458 442.459930 217.554947 587.420166 510.681732 1207.341309 1326.246948 1387.703857 482.635559 910.756042 872.001648 959.014221 751.672668 906.846252 391.884064 1023.345459 523.496521 447.020966 274.952515 1637.265137 1036.379883 846.683044 1299.116699 738.932129 1292.177246 824.496460 382.804413 322.453552 861.192383 790.259460 362.442871 882.924622 788.509766 1657.272217 810.642822 755.430603 582.670593 957.885620 801.101501 1148.773193 378.475586 458.246643 1115.506714 466.605255 865.392639 825.509705 789.325623 2672.811768 412.249298 836.731567 1027.451172 1026.322998 488.195801 487.051514 466.952576 3359.215820 627.920105 1099.476318 801.760071 542.558960 1057.979248 1522.530273 646.600647 592.888550 207.236252 446.104736 367.818268 538.940491 1236.265503 560.380920 608.638611 610.112244 793.884705 763.061523 827.901611 741.913208 1156.275879 804.656250 967.014709 1038.636841 1746.343262 762.496948 941.966858 488.425568 909.316528 778.829102 861.400818 718.238525 470.730164 733.826477 825.943237 533.314758 414.587250 343.610413 925.320251 1203.198853 539.911255 734.969971 875.057861 521.212708 1251.349731 833.782349 1134.724976 753.850220 940.937744 896.966125 1611.019653 870.693054 730.623169 647.958313 842.341064 1141.935059 809.273804 610.268921 919.748413 329.836426 584.182739 788.674011 690.208435 724.079712 511.757080 692.160767 897.119812 637.757446 1234.060425 488.658722 544.466431 360.031372 1102.790771 716.876160 1310.583618 900.537964 483.209534 2017.556274 775.113586 925.313904 711.075867 719.985352 431.541595 481.735443 614.523010 1001.153625 447.654114 880.257690 2016.859985 925.771851 739.688660 551.193237 649.071167 620.965881 745.633667 485.957886 779.834778 727.557129 815.570496 582.879089 633.008362 1250.660522 1134.874512 598.783020 363.421265 600.481445 596.879700 549.721436 886.592651 464.265472 903.306458 728.834961 725.751343 1177.194458 858.346985 713.684937 275.258179 1403.966309 513.697876 922.113281 566.092163 346.623840 449.805939 1075.151733 407.154388 783.021423 411.438263 599.296265 604.481567 1235.485840 756.873230 661.257446 636.522217 495.981262 1150.490967 447.717316 709.377991 756.118835 400.768250 611.586304 910.634705 1355.325684 487.230774 724.938965 780.975281 1017.401794 895.302673 877.336975 493.031799 743.959595 349.262390 881.488220 804.503052 779.119385 1105.260742 436.674438 821.039062 840.804932 361.838562 704.976929 696.559692 440.806335 996.183105 653.559387 618.779846 565.015808 1290.022827 336.334991 904.380859 920.442261 579.592041 1093.396606 634.049866 705.822937 350.132874 2102.783936 838.023010 902.545593 894.610352 853.431885 855.141052 778.656128 289.767639 660.262695 699.504333 887.042419 1232.258057 975.434937 657.589294 282.258301 1060.969238 556.490234 830.614197 1419.183105 1539.738037 1058.371826 
conv_81_param_0 125.838776 29.680773 158.992371 52.053349 18.743237 43.799908 125.040146 51.947323 42.772518 89.730072 80.767052 19.471382 13.684855 104.654228 40.546436 108.822830 
conv_82_param_0 45.731380 127.451073 165.078217 96.105598 208.735199 35.197472 215.017990 191.857742 305.737915 114.873787 36.211338 52.136406 58.029171 265.232452 33.735531 264.414490 
conv_83_param_0 85.277374 77.271538 89.380066 74.101425 
conv_84_param_0 151.455170 119.998955 36.302574 41.261723 121.009499 61.058910 253.071945 78.795815 109.268707 64.881340 61.284626 81.181656 33.279877 101.000824 279.055878 32.127426 
conv_85_param_0 191.365311 58.480553 32.589321 82.317207 100.389801 245.478470 29.760611 202.959076 137.185547 209.832230 128.869019 193.590683 168.938492 202.418457 54.593479 60.925671 
conv_86_param_0 101.283485 92.758919 73.848953 95.553268 
conv_87_param_0 283.115784 143.604599 289.345703 54.374367 62.697681 59.593288 138.805252 43.830772 147.056610 243.815048 99.594810 133.315094 135.315887 120.110672 171.337128 206.249008 
conv_88_param_0 124.775894 183.109344 86.191124 246.473022 75.656296 55.778526 25.468616 100.773552 66.726524 164.606247 180.045120 55.052727 183.603638 55.663651 20.434332 39.840515 
conv_89_param_0 112.888885 76.274490 109.284035 123.268250 
convdw_245_param_0 365.817291 592.798035 264.117859 124.709732 216.052444 462.280365 380.365173 161.862854 411.344788 180.262543 278.519043 363.684906 141.134613 493.936035 249.620392 424.647919 401.503174 558.048523 142.167755 579.210510 454.601807 186.280640 264.354126 472.972992 198.378647 437.864990 249.258667 206.175140 252.593674 797.563782 162.583237 271.114990 421.428864 395.085754 162.512802 131.924637 214.734818 615.437988 498.692871 141.947388 473.440399 319.027557 588.768494 446.017883 219.286713 239.227921 369.275696 543.400574 175.467056 503.206757 283.526428 393.221344 563.671021 436.000610 214.122482 738.541321 277.961060 467.415436 451.851349 452.114349 358.860931 378.009155 440.395477 437.792938 
conv_90_param_0 201.564026 132.745544 201.535110 242.964569 219.515900 142.151749 176.760712 235.343277 220.754700 148.337219 211.911484 324.734436 128.162613 113.761932 322.538727 129.010254 175.953278 188.479538 206.457138 294.940063 108.897705 181.524918 156.364258 165.525360 127.916824 186.206161 148.863083 252.199921 208.988785 244.914352 161.160294 229.879593 195.133087 143.728149 164.277588 204.610367 146.734924 159.378662 188.892761 189.521454 131.627182 199.283478 86.378174 149.706375 212.752213 163.641068 209.911148 200.827835 207.286102 268.458527 206.340622 85.575127 280.112488 164.742874 244.037064 149.404495 202.576630 235.186157 122.669701 294.807587 265.260132 200.903351 239.785324 159.718719 
convdw_246_param_0 74.718666 108.837364 334.413910 170.906708 227.129456 198.070358 302.151672 227.066940 279.822937 387.641693 206.851440 44.033024 313.473053 60.556309 52.803535 155.999619 190.787643 753.606995 111.387764 178.598175 115.052933 108.740761 295.282532 65.901451 184.101990 73.280228 164.505402 62.662727 169.323944 149.781403 92.370583 252.741150 309.313232 114.001244 143.685257 60.215168 171.455215 191.044205 115.748596 103.439774 184.403992 206.680634 140.855392 62.027412 117.483261 108.795662 290.634521 64.211433 251.602448 102.374809 193.844452 322.724457 69.126137 140.266327 64.018471 594.662964 287.658875 199.084793 621.060852 140.204468 85.469048 171.287567 96.459221 103.825081 
conv_91_param_0 215.212326 141.355057 66.071922 329.379364 163.874496 159.553009 119.074219 58.371693 113.269791 130.395523 154.328659 301.750122 192.558487 127.575249 121.778091 155.027710 235.866791 273.370789 136.674042 210.896347 170.042633 129.791290 178.636642 160.830460 279.958893 212.539993 202.241867 96.514542 165.709503 88.069038 183.741562 174.935806 133.463165 151.285446 108.836739 196.126556 92.365257 103.382935 131.454010 127.378815 114.777695 147.609451 156.107437 118.798683 250.071442 182.583786 214.488129 109.747910 131.669052 152.906082 155.826096 113.820107 98.676682 143.551025 161.207855 215.977005 138.351303 105.106140 154.969421 98.986465 200.190750 144.989517 120.955734 113.536758 
conv_92_param_0 130.832993 187.930634 168.020676 131.961441 121.313431 176.695648 160.059082 116.739677 179.006195 198.395111 197.641342 117.584084 
convdw_247_param_0 183.765152 94.574554 252.868927 137.604630 246.741257 86.720566 229.725891 209.535400 137.923813 139.509613 135.571396 194.391251 318.167206 161.579254 249.885620 301.484833 286.380585 104.354324 89.580154 184.312622 64.110924 107.758621 266.919861 145.132523 91.387520 118.340942 253.331329 135.739838 136.127243 137.383759 173.610565 138.897232 243.901215 256.365540 115.938133 192.585724 210.454376 193.167694 126.669273 88.391853 281.311005 140.379379 141.116730 246.481628 268.465149 277.330566 251.582520 146.662552 402.776428 54.294258 351.564148 295.276031 271.353119 251.669998 87.707100 183.462265 95.901428 166.925156 197.548172 408.394897 93.858772 75.496513 146.972183 114.697670 210.775131 115.859596 199.449966 47.129242 142.240692 161.583725 271.820190 106.951302 294.726196 235.256973 192.249664 137.987671 320.752258 185.544220 289.871674 157.562073 247.575745 82.761070 120.905975 112.828667 141.740570 135.873856 265.811920 116.633347 179.746841 206.246964 172.525925 128.254303 157.328079 247.388672 456.437469 50.056797 183.242416 109.239510 156.124039 128.807968 141.045181 120.723152 214.998550 180.745377 351.665283 103.399902 129.423798 171.187988 73.699532 151.835693 358.826782 161.010696 161.405228 109.071030 55.739666 136.342957 196.260468 239.623978 141.524673 141.355896 106.903275 291.182098 54.374336 147.069153 264.175354 139.232071 283.252563 85.338341 
conv_93_param_0 135.436584 134.442398 286.581207 207.074310 336.917084 217.891891 107.052200 215.334351 214.264725 236.723877 225.833008 189.496658 253.318710 256.624573 246.027588 194.723663 218.732224 193.847733 288.072418 386.189941 303.086395 195.507004 165.996445 295.013275 159.109467 206.341400 223.519516 349.936676 235.839828 221.544952 153.714203 209.745789 251.758087 202.580658 266.017487 293.669983 261.776550 251.706711 244.877563 328.683350 262.016449 176.128220 194.136078 244.607803 231.734726 127.324493 245.928253 199.010376 242.959854 313.379547 250.819855 210.232132 161.880615 221.717194 164.324646 190.181259 204.608582 294.673248 197.377823 242.883392 231.922958 233.798233 197.778809 176.089325 
convdw_248_param_0 147.955353 444.999847 163.870163 253.022247 118.318192 604.139404 70.833374 131.037323 119.713600 226.289917 85.898544 224.421219 204.404068 115.581238 112.134628 102.425659 188.866180 70.873940 36.209644 472.023438 47.382034 46.252605 124.399773 101.124954 301.068909 261.938904 83.779572 104.452797 95.354027 266.743164 77.773491 71.782120 318.637115 26.901918 77.361450 168.604538 118.335358 413.006775 311.211823 85.625069 64.095421 55.756752 105.145187 152.693527 72.652199 595.558777 164.492172 88.625938 230.864319 180.923874 87.569939 64.067047 176.221298 67.450951 549.107788 206.567398 105.520164 131.731064 91.064308 54.975956 325.711456 266.155243 98.339027 188.946228 
conv_94_param_0 147.074753 241.431061 152.163361 185.557022 167.872513 163.653168 116.325607 203.957260 255.319321 202.370667 149.840149 119.420036 194.462006 209.624054 120.980423 140.986145 99.307686 214.787827 181.019867 286.793243 203.257156 196.940475 154.294739 190.229843 122.940094 128.397079 289.782806 161.377960 134.183517 75.994614 134.470978 157.587601 153.270462 192.489899 178.138153 158.140366 171.158188 152.919128 233.395142 122.408203 222.478714 109.404533 201.675720 95.052376 95.445587 113.772987 115.755135 76.373726 111.872124 166.775803 158.503357 237.027588 166.546371 105.872047 113.026642 132.639816 246.930893 110.828011 154.638412 176.925934 173.957901 160.955353 142.204254 194.720779 
conv_95_param_0 127.186310 168.893509 168.565140 141.203033 121.881912 204.638870 158.401947 161.550308 216.386017 193.379929 168.565140 138.940170 
convdw_249_param_0 144.839157 120.885727 126.820229 83.136208 280.831909 303.238739 114.635849 60.283646 236.588852 72.624008 203.104935 182.693787 300.464081 160.296356 188.817307 118.013672 137.506088 181.359589 195.387543 77.613564 79.489777 216.868912 122.001167 204.767639 161.769577 115.728340 208.779480 121.808319 57.835121 125.658440 111.295868 139.861221 230.502060 167.820312 347.890930 225.333069 122.249924 52.565720 115.163048 241.729813 55.554207 226.397919 493.842102 328.291595 49.840107 140.412903 210.123779 210.703476 131.784348 84.906242 88.533997 292.506104 101.186226 99.288857 141.596710 259.753632 293.709167 191.342056 114.022301 27.532576 302.197418 249.376373 108.075668 211.692780 147.106491 45.629501 191.013397 167.068451 234.882721 157.329849 46.137932 90.158356 100.796944 170.343384 276.630707 38.800354 204.885071 123.570717 104.675034 158.982880 91.000656 127.693756 84.855103 122.287994 93.315414 193.710999 132.355927 158.389709 70.835754 135.189499 104.234764 146.945618 220.642929 70.358025 123.231361 127.185455 99.872498 222.095764 155.268494 148.980240 140.414505 203.148666 63.050709 44.879227 280.747986 122.319641 192.556717 350.685822 231.604568 110.647987 72.519920 124.784622 133.513474 35.779774 150.716476 149.782318 75.493073 86.166527 144.056686 191.210876 125.702545 148.624817 79.923241 191.590942 45.091206 43.186031 130.804337 184.623383 59.369423 276.194885 187.740417 255.880875 102.903755 118.154503 325.408905 161.819626 188.786652 146.866821 168.946381 60.547581 151.947388 157.408249 199.559021 163.986908 156.220078 195.489365 180.192551 170.421890 223.940887 135.850784 88.339211 59.224812 68.753174 200.870316 135.305206 159.124771 192.333618 217.614105 68.746834 115.758095 331.368073 184.294968 117.678825 204.280548 79.716705 80.160995 254.748444 115.372894 37.755524 175.065186 121.785789 127.608994 90.456650 97.295082 135.175858 121.744904 154.520599 231.834442 75.597015 49.311981 56.097511 203.038742 134.723083 166.838104 120.034294 231.735153 141.022263 73.812553 119.215660 130.813507 150.424133 162.747650 229.067749 216.171402 126.162628 156.191788 87.582077 113.211197 100.581596 243.519333 92.626823 186.063232 126.885330 105.185593 94.574257 118.471397 239.840759 132.354980 164.090607 507.131195 99.853203 228.208313 141.114868 99.417168 121.730515 158.423401 171.918961 78.352173 325.557190 129.405014 73.299919 336.263733 148.673630 129.091888 79.946022 93.619766 124.537254 152.316071 50.684448 121.034447 208.778198 138.763290 122.923294 106.198769 117.402161 65.353371 51.579605 87.260735 71.198082 44.248997 264.364288 163.025421 316.950745 142.345200 106.441299 134.649368 54.066685 80.168083 458.396057 183.425476 35.635181 278.423004 142.654785 55.355183 231.253159 84.860046 
conv_96_param_0 251.190948 444.842377 446.679993 327.145538 346.520630 284.997620 260.830627 507.020905 365.087189 207.394974 242.925919 411.847778 440.643311 391.465607 365.542999 415.193909 362.222382 393.664001 590.749573 359.612305 397.597595 408.704651 435.886810 161.030014 469.286804 527.551575 278.845184 489.926208 298.901611 424.308533 266.309448 317.076996 466.882935 369.420685 274.426147 492.272369 304.842621 589.058167 350.443390 387.928589 538.977783 357.966278 424.200439 488.002045 453.810822 304.719574 509.244781 158.609650 350.425262 582.799866 337.782593 381.548279 327.558960 494.599274 301.155670 414.178741 391.561462 417.378998 215.122314 355.010376 355.936066 530.098511 313.515839 458.514221 
convdw_250_param_0 82.765251 294.893219 105.008789 90.223167 167.372040 162.786819 79.028641 136.825333 287.942902 74.233330 117.528191 93.033318 91.031067 105.461311 111.823021 105.836327 96.586868 129.701492 220.298203 177.034225 166.543716 74.557961 137.183258 104.134155 196.498581 105.445992 86.794449 60.249615 105.882881 112.736717 65.662819 231.326920 150.544174 87.617020 140.245560 90.030022 56.835796 169.727600 164.413940 85.160530 191.838974 81.810478 117.204185 146.536682 120.788322 207.458313 92.498810 126.695290 127.298050 41.457088 112.613846 139.201035 149.028961 64.927902 102.267105 159.303101 146.889725 75.644104 78.379936 127.288773 171.843597 132.932968 67.590942 182.875351 
conv_97_param_0 281.721680 296.743591 280.994385 230.810562 187.052063 180.266403 219.161743 219.229721 185.140045 306.773651 191.299469 251.250854 300.819977 306.018158 338.344604 230.852768 224.266113 285.633667 225.018494 197.556656 295.011230 269.543274 211.194351 257.153595 247.882370 239.027710 181.710068 334.607208 231.818100 149.894928 152.695419 101.561424 301.917603 180.663788 239.645645 263.752319 173.828171 187.449753 285.817322 209.986572 236.298111 330.250061 256.453766 128.576981 271.098907 251.567902 176.108231 154.320969 260.016510 360.292969 111.125862 254.220413 133.559753 133.147079 185.787384 196.854294 124.511375 355.161530 172.759949 181.731308 131.131119 201.873810 164.298965 302.053131 
conv_98_param_0 186.181824 129.465408 168.783905 167.803864 199.766510 127.248535 200.227875 195.708054 171.115784 131.894516 194.682632 189.160721 
conv_99_param_0 67.584702 92.945625 236.596207 33.261452 126.357552 192.385590 118.914871 116.211761 152.774475 121.366135 192.612366 145.033997 200.565948 56.760693 402.328400 108.285255 82.415092 127.057396 175.730606 210.189804 151.971405 151.319336 130.954163 248.587418 232.885864 244.943359 64.387596 83.535034 109.385841 43.084694 113.438828 121.568115 
conv_100_param_0 123.880219 127.046722 81.673065 139.599960 101.962685 109.698723 168.320908 157.023499 116.540909 54.956089 133.919495 136.478775 90.936516 137.724457 100.108643 99.820908 61.050308 286.409210 68.980408 126.577255 131.729950 138.464020 52.463863 97.569794 141.712540 250.257187 139.404175 122.156860 160.993179 74.862938 140.134369 160.332870 
conv_101_param_0 323.301422 360.743408 224.027557 262.723236 167.156815 201.781219 353.391296 236.666061 198.698242 122.686790 182.523514 117.797104 194.828461 213.718979 226.170441 129.853226 166.514725 284.257935 127.498039 182.908585 212.150085 281.794159 262.061462 232.436096 175.740540 152.728134 229.159470 266.628387 285.036713 229.969940 262.061462 214.600662 
conv_102_param_0 346.656799 75.657379 92.020241 260.379822 73.973938 48.462471 57.544380 96.240051 59.833160 267.959808 77.381790 158.884216 81.108162 118.622658 111.006393 42.890434 142.515762 48.135551 75.165871 102.432289 49.189278 98.974854 155.320557 125.402374 191.000336 196.074249 239.672806 59.211494 148.271698 327.480560 110.701180 174.736069 
conv_103_param_0 70.556541 96.472771 321.074646 124.377480 58.737118 161.623260 85.344940 85.010025 81.138916 49.249668 75.076675 86.944229 56.613434 101.290375 47.308910 45.712849 56.908199 60.234821 61.219997 69.386688 78.829041 120.929962 41.105587 59.623081 86.757668 168.006912 72.702286 52.333843 36.796761 132.328430 54.470612 68.201973 
conv_104_param_0 289.156189 273.353638 205.447083 301.211334 149.394608 221.735718 291.587433 284.257935 178.883087 183.037292 136.247253 184.465256 144.097504 279.823547 123.502373 208.076797 132.028427 207.578613 113.479927 265.404083 200.382126 214.423737 194.682632 302.965637 174.913254 146.121353 277.435730 302.085938 313.180023 339.329407 148.287338 116.114288 
conv_105_param_0 70.702858 421.021973 100.307457 483.181763 197.410217 377.178864 107.912544 218.145538 93.353806 272.842377 308.536041 237.863922 758.033691 115.717461 87.128105 90.823692 375.634613 497.357513 134.379349 94.430229 532.437378 109.836296 202.684021 241.229187 119.929306 67.882950 219.905777 266.322357 224.541214 59.749672 379.248169 243.512192 
conv_106_param_0 95.460312 71.682121 69.299141 77.131287 111.008369 159.142746 202.385788 63.875427 74.214622 43.459309 86.882645 141.954865 94.909966 120.771683 87.860184 74.622437 118.038292 81.377205 69.208939 299.441498 62.624310 78.374260 81.469528 92.696419 65.589752 71.025856 74.905029 65.918831 66.705467 75.485603 102.623093 79.934982 
conv_107_param_0 210.945663 251.543518 187.794952 360.493408 150.780289 319.528259 220.982162 239.499084 183.813431 578.634033 136.605042 581.870239 125.166504 222.304276 214.777863 469.064026 115.907310 212.670486 344.726318 305.635712 259.318054 381.932465 219.305222 353.872101 472.901825 243.080368 273.353638 182.523514 241.052826 381.093048 148.202850 241.052826 
conv_108_param_0 738.617798 858.329224 777.450073 302.117004 787.203125 985.530762 635.278625 473.160156 388.908478 628.696350 423.167389 583.706238 546.441956 782.961365 368.968994 584.485840 839.525208 734.049744 277.469818 661.228516 489.655701 568.103333 594.015686 1391.745728 628.113525 467.911194 578.414978 437.066010 471.064606 783.626465 519.223755 611.957153 861.180786 623.301819 599.936768 329.739288 353.567688 382.604553 451.615509 792.186646 693.803772 992.090454 645.805969 445.368500 387.325531 332.709259 533.786804 983.155640 327.917969 559.733887 564.826111 413.700775 564.196167 987.534485 932.813293 347.805573 262.795105 519.740417 898.690002 671.472473 478.027100 1132.190186 579.097534 549.713135 
conv_109_param_0 752.519531 823.192810 895.556580 500.278107 1302.719238 1259.724121 668.395508 1071.333740 969.426880 965.951904 1005.739136 1074.770020 726.530029 970.479858 741.884888 454.445435 415.771759 1436.625732 431.934967 1325.805176 601.837280 874.798401 1183.225830 2701.434814 1229.064941 1049.655396 1004.911804 316.806976 402.113861 1400.499023 793.771301 573.207031 1163.243774 877.593811 797.936829 675.249268 214.974823 915.733643 603.806335 937.382874 1237.224365 819.333069 1240.683838 859.841003 536.065613 963.558105 1259.593140 814.715576 549.760193 1071.105225 1237.681152 958.952209 761.242249 412.803711 318.655090 1098.563599 1106.727905 904.322449 1278.798706 1023.100708 1005.935364 1364.369141 317.308807 725.398193 
conv_110_param_0 196.545898 260.917450 150.915359 563.247681 153.528214 166.686691 197.932648 298.428802 214.612518 146.196304 194.872955 573.306091 163.785507 120.107788 481.134949 395.891846 257.465576 476.118561 401.796021 73.075104 103.074211 180.809021 176.030334 168.392227 403.412598 132.860397 108.060516 359.847626 117.161957 257.309204 276.176575 408.468384 198.116623 178.375290 149.818314 261.868683 230.414429 142.891037 168.484497 145.637253 154.832611 159.307785 395.565918 189.206299 133.196198 239.449738 230.591553 337.582428 211.715637 101.726616 152.874268 153.782181 195.584152 474.124146 535.515137 479.371948 173.598846 146.511185 249.654327 91.789291 188.688995 133.280472 170.555740 384.020172 
